#version: 0.2
n g</w>
t h
c h
a n
o s
a p
ap os
& apos
&apos ;</w>
y o
k h
n h
t r
yo u</w>
ô ng</w>
n g
th e</w>
e r
ô i</w>
a t</w>
o n</w>
t ôi</w>
t i
a r
o u
t o</w>
kh ông</w>
i ng</w>
n h</w>
e r</w>
q u
i s</w>
i n
p h
a l
r e
w h
o n
i t</w>
g i
l à</w>
a n</w>
c ó</w>
an h</w>
e d</w>
an d</w>
o r
i n</w>
a y</w>
m e</w>
e n
n o
l i
. .</w>
v e</w>
t a</w>
o f</w>
th at</w>
ê n</w>
e l
h a
e a
s a
ú ng</w>
ờ i</w>
e n</w>
ế t</w>
e s</w>
s t
v à</w>
n à
ấ y</w>
đ ư
c h</w>
ộ t</w>
er e</w>
c á
ủ a</w>
c ủa</w>
ớ i</w>
m ột</w>
h e</w>
th e
o r</w>
i t
r o
u s
ch úng</w>
l o
b i
r i
w e</w>
h o
đ ã</w>
c o
ấ t</w>
d i
ng ư
h i
o t
đ ó</w>
ợ c</w>
đ â
ạ i</w>
g h
w a
đư ợc</w>
m a
s ẽ</w>
ả i</w>
a c
v i
e t</w>
g o
đ i</w>
i l
b e
wh at</w>
e m</w>
r e</w>
ngư ời</w>
g ì</w>
l à
u y
là m</w>
l y</w>
th is</w>
s i
. ..</w>
b u
ch o</w>
k e</w>
qu ot
quot ;</w>
& quot;</w>
ph ải</w>
e s
ồ i</w>
nà y</w>
no w</w>
l e</w>
c ô</w>
o ng</w>
l d</w>
ế n</w>
ou t</w>
yo u
c a
u ố
l a
gh t</w>
f or</w>
th ể</w>
ar e</w>
d o</w>
n e
m y</w>
m e
r ồi</w>
n ó</w>
v ới</w>
t o
ầ n</w>
ệ n</w>
b e</w>
t a
ó i</w>
đâ y</w>
ề u</w>
c on</w>
al l</w>
ha ve</w>
s e</w>
s e
ì nh</w>
n ói</w>
s o
r a</w>
ữ ng</w>
you r</w>
nh ững</w>
d o
bi ết</w>
a ng</w>
tr ong</w>
no t</w>
n o</w>
sa o</w>
a b
v ậ
on e</w>
wa s</w>
c an</w>
s u
th ế</w>
i ều</w>
đ ể</w>
s o</w>
@ -
@- @</w>
c e</w>
e v
w it
c ậ
u n
a t
us t</w>
à o</w>
d on</w>
l ại</w>
ng h
k i
wit h</w>
m i
cậ u</w>
l l</w>
el l</w>
vậ y</w>
nh ư</w>
ư ng</w>
the y</w>
ạ n</w>
ơ n</w>
bu t</w>
k now</w>
đ ang</w>
f i
cá c</w>
cá i</w>
ch uy
l e
m à</w>
nà o</w>
kh i</w>
r a
ou ld</w>
à i</w>
nh ưng</w>
â n</w>
s h
th ing</w>
t u
s t</w>
uố n</w>
ậ t</w>
j ust</w>
ư ớ
th ere</w>
a i</w>
đ ến</w>
g et</w>
m uốn</w>
en t</w>
ơ i</w>
v ề</w>
h ọ</w>
d e
c u
ắ n</w>
á c</w>
t er</w>
g o</w>
th er</w>
b o
ằ ng</w>
p e
ừ ng</w>
h ere</w>
a l</w>
ch ỉ</w>
w or
ti on</w>
o k
li ke</w>
ế u</w>
v ào</w>
c ả</w>
b a
ố ng</w>
t s</w>
ầ u</w>
à y</w>
b ạn</w>
i f</w>
w an
p l
th ấy</w>
chuy ện</w>
ọ i</w>
ướ c</w>
il l</w>
ũ ng</w>
ri ght</w>
ab out</w>
s ự</w>
ò n</w>
ệ c</w>
o p
l u
à n</w>
m o
ho w</w>
th ì</w>
u p</w>
c ũng</w>
c on
đâ u</w>
h e
y ea
b ị</w>
à nh</w>
gi ờ</w>
đ iều</w>
vi ệc</w>
c òn</w>
a s</w>
m p
ữ a</w>
ou n
al ly</w>
u s</w>
s he</w>
v er</w>
ư a</w>
f u
co me</w>
c i
k ing</w>
d s</w>
ngh ĩ</w>
v ì</w>
p ro
n i
a s
n ếu</w>
à ng</w>
c k</w>
or e</w>
ti ng</w>
o d</w>
r ất</w>
hi m</w>
v er
o k</w>
e x
ố i</w>
d y</w>
ù ng</w>
ờ ng</w>
d a
d e</w>
o h</w>
ậ n</w>
th i
n a</w>
th ật</w>
m an</w>
m ình</w>
ac k</w>
ch i
th ôi</w>
í nh</w>
th in
t ừ</w>
a g
ề n</w>
á t</w>
ự c</w>
c ả
f ro
f a
c ần</w>
w ill</w>
á i</w>
ứ c</w>
yea h</w>
w n</w>
fro m</w>
t er
go t</w>
ou r</w>
so me
h er</w>
â y</w>
ú c</w>
ệ t</w>
ê u</w>
f e
ă n</w>
m u
ắ t</w>
us e</w>
ắ c</w>
t h</w>
th ứ</w>
w ell</w>
h ắn</w>
g u
đ ấy</w>
s p
r y</w>
nh à</w>
h ơn</w>
w ay</w>
wh o</w>
re a
n a
wan t</w>
đ ầu</w>
thin k</w>
n ữa</w>
n ă
t ed</w>
ơ ng</w>
ộ c</w>
t ới</w>
in d</w>
l et</w>
í ch</w>
ổ i</w>
se e</w>
b ả
á ng</w>
ư ơng</w>
ộ i</w>
ỏ i</w>
wh ere</w>
h u
ố t</w>
er s</w>
c ông</w>
n ên</w>
ô n</w>
nh iều</w>
p o
h is</w>
m ọi</w>
đ i
t y</w>
ti n</w>
ok ay</w>
ch ứ</w>
l ên</w>
wh en</w>
c k
d u
d n</w>
â u</w>
nh i
go od</w>
di d</w>
f or
ỗ i</w>
the m</w>
ch ưa</w>
tr i
ti me</w>
tr ên</w>
b y</w>
ev er
in e</w>
es s</w>
p er
g h</w>
p re
ẫ n</w>
wh y</w>
ì m</w>
x in</w>
go ing</w>
i d</w>
m ar
tr u
g e</w>
đ úng</w>
i s
ng he</w>
b ack</w>
ọ n</w>
ể u</w>
w ould</w>
m ẹ</w>
e l</w>
t ìm</w>
ti ế
p ar
w ere</w>
ư ờng</w>
o f
t e</w>
co m
ọ c</w>
cá ch</w>
w e
t ại</w>
os e</w>
á n</w>
ò ng</w>
th ành</w>
h ã
p u
r ằng</w>
ap p
h ay</w>
g on
t ốt</w>
l ea
m ore</w>
an y</w>
nh ất</w>
kh ác</w>
g e
tr ước</w>
ộ ng</w>
ch ú
y s</w>
y es</w>
á o</w>
á u</w>
cả m</w>
h el
i r</w>
ch ết</w>
gon na</w>
ar d</w>
á nh</w>
be en</w>
a m</w>
d ay</w>
ặ t</w>
t ớ</w>
ụ c</w>
ì n</w>
t ất</w>
ta ke</w>
r u
t e
ha d</w>
he y</w>
ư ợ
lo ok</w>
ca use</w>
sa u</w>
ấ n</w>
qu an</w>
j o
pe op
ứ ng</w>
ư ở
ng ày</w>
ne ed</w>
oun d</w>
đ ị
m ày</w>
hã y</w>
w i
the o</w>
qu á</w>
đ ừng</w>
so me</w>
nă m</w>
m on
th en</w>
ti on
m b
peop le</w>
s ti
k e
ưở ng</w>
d ing</w>
qu a</w>
d er
ồ ng</w>
ba o</w>
c ould</w>
b à</w>
a f
ha s</w>
b ắt</w>
ch ính</w>
ậ p</w>
â m</w>
f e</w>
ặ c</w>
0 0</w>
s on</w>
ou gh</w>
c ùng</w>
ắ m</w>
y ing</w>
s ống</w>
b ố</w>
at e</w>
c ar
ệ u</w>
nh ìn</w>
h ea
re ally</w>
p a
s ay</w>
t t
d er</w>
t ên</w>
s el
t al
ac e</w>
f o
ặ p</w>
l a</w>
t ell</w>
it y</w>
en d</w>
an k</w>
ấ u</w>
be cause</w>
m ent</w>
ể n</w>
p i
nh ân</w>
ha i</w>
ou r
a u</w>
ể m</w>
o ther</w>
ê m</w>
do wn</w>
cu ộc</w>
g re
th u
x em</w>
ố c</w>
an y
ng o
m ới</w>
ta o</w>
t ự</w>
ma ke</w>
v ẫn</w>
some thing</w>
th ực</w>
th ích</w>
e ar
ọ ng</w>
h app
nh ận</w>
s or
ver y</w>
ạ o</w>
ng hi
d ea
ne w</w>
t w
h ọc</w>
s ố</w>
c ứ</w>
y êu</w>
đư a</w>
k s</w>
uố ng</w>
gi a</w>
kh o
l úc</w>
ú p</w>
l ỗi</w>
m il
ch ắc</w>
e p</w>
ng ay</w>
g ặp</w>
m in
ng s</w>
á ch</w>
os t</w>
di dn</w>
the se</w>
w o
g ọi</w>
a m
l o</w>
l ed</w>
ch áu</w>
ở i</w>
qu y
st o
đ ộng</w>
bả o</w>
ử a</w>
o ver</w>
c ơ</w>
l ần</w>
gi úp</w>
tt le</w>
ch u
th ời</w>
hi ểu</w>
sa id</w>
on ly</w>
a in</w>
ả y</w>
an d
pl ea
h ết</w>
ne ver</w>
ả n</w>
t uy
s ho
c t</w>
the ir</w>
tw o</w>
đị nh</w>
t ay</w>
b ọn</w>
á y</w>
gi ết</w>
fi r
g r
to o</w>
ă ng</w>
b le</w>
tr ở</w>
ó ng</w>
ev er</w>
es t</w>
v ing</w>
l ấy</w>
v ụ</w>
li ttle</w>
b ỏ</w>
x e</w>
an t</w>
ệ nh</w>
t ter</w>
ẳ ng</w>
m or
g a
th an</w>
m a</w>
c a</w>
gi ve</w>
ch ào</w>
n ơi</w>
c l
c al
n e</w>
to àn</w>
s tr
h àng</w>
b ằng</w>
m ặt</w>
of f</w>
bo dy</w>
n ay</w>
e y</w>
m ất</w>
l ắm</w>
an g
in to</w>
ạ nh</w>
ch a</w>
ou s</w>
a d
sh ould</w>
ẩ n</w>
l ớ
st ar
c re
su re</w>
th o
hi ện</w>
á m</w>
c e
ắ ng</w>
co mp
ượ ng</w>
ng ài</w>
ev en</w>
ou ght</w>
b ộ</w>
si nh</w>
b ất</w>
ấ p</w>
sel f</w>
plea se</w>
l ing</w>
s s</w>
f ri
n ước</w>
b ởi</w>
ó c</w>
v u
đư ờng</w>
nh au</w>
ti ền</w>
m s</w>
kh ỏi</w>
l s</w>
ừ a</w>
m an
do ing</w>
ever y
đ ồng</w>
đ ề</w>
fir st</w>
wh i
gi ới</w>
l ý</w>
sor ry</w>
hel p</w>
el y</w>
tu r
b r
p os
tiế p</w>
re d</w>
ồ n</w>
n ing</w>
b l
b a</w>
me an</w>
nhi ên</w>
tion s</w>
v es</w>
mu ch</w>
m en</w>
n u
ứ a</w>
& #
&# 9
lo ok
ố n</w>
th ank</w>
f ind</w>
c ứ
h ả</w>
l ời</w>
ạ c</w>
t ừng</w>
b é</w>
m áy</w>
y .</w>
h ành</w>
en ce</w>
h ình</w>
chú a</w>
ph òng</w>
i r
wor k</w>
ầ m</w>
c âu</w>
it e</w>
re e</w>
ch o
đ ại</w>
er i
st u
ngo ài</w>
h ỏi</w>
ệ m</w>
k ết</w>
gi an</w>
lu ôn</w>
f f
o l</w>
r .</w>
â ng</w>
ạ t</w>
p ri
b ây</w>
ụ ng</w>
u h</w>
li fe</w>
al i
s át</w>
an ce</w>
cứ u</w>
t âm</w>
sti ll</w>
th ông</w>
v ài</w>
b ro
ạ y</w>
lo ve</w>
mb er</w>
t ình</w>
ngư ơi</w>
a tion</w>
m ay</w>
đ ồ</w>
đ ều</w>
c or
th ose</w>
whi ch</w>
di s
ph i
c ố</w>
b ên</w>
ạ m</w>
á p</w>
f in
g en
g ái</w>
lớ n</w>
ou l
ú t</w>
go d</w>
f r
x uống</w>
gi ống</w>
v ấn</w>
vi ên</w>
ị ch</w>
v ị</w>
f ore</w>
ế p</w>
fu l</w>
c o</w>
ear s</w>
s ĩ</w>
ch ú</w>
ả nh</w>
m ấy</w>
chi ến</w>
tr a
bả n</w>
tuy ệt</w>
un der
ổ n</w>
st er</w>
x ảy</w>
ợ p</w>
ợ i</w>
ch e
ả ng</w>
ph át</w>
ch ị</w>
ma y
h ợp</w>
s ed</w>
wh o
tru ng</w>
th ay</w>
be fore</w>
in ter
w s</w>
k ẻ</w>
x u
tr ả</w>
k ed</w>
ch ẳng</w>
y ears</w>
l ẽ</w>
nh ớ</w>
v âng</w>
t ưởng</w>
tr ường</w>
ắ p</w>
wor ld</w>
si de</w>
d ed</w>
en ts</w>
tr y</w>
ế m</w>
ổ ng</w>
sto p</w>
nh é</w>
pu t</w>
th ưa</w>
cả nh</w>
ô m</w>
qu ay</w>
f t</w>
af ter</w>
b áo</w>
ạ ng</w>
t ly</w>
b ệnh</w>
nh anh</w>
chú t</w>
v ed</w>
kh i
lo ng</w>
p or
đ o
thi ngs</w>
gi ải</w>
ch ỗ</w>
c oun
m ost</w>
happ en
tiế ng</w>
th ằng</w>
st a
c all</w>
đ ổi</w>
đ ánh</w>
h ội</w>
d a</w>
tr ọng</w>
s h</w>
à u</w>
oul dn</w>
la st</w>
an i
may be</w>
ch ơi</w>
an s</w>
ab le</w>
tr a</w>
ẹ p</w>
w al
v ô</w>
k o</w>
vu i</w>
uố i</w>
th r
si r</w>
- -</w>
j u
ca l</w>
any thing</w>
n ữ</w>
be li
wa ys</w>
s hi
k no
ĩ a</w>
gi r
ag ain</w>
no thing</w>
th ường</w>
t ối</w>
đ ối</w>
ư ới</w>
é t</w>
rea dy</w>
t ạo</w>
i mp
g g
b ab
t ính</w>
e ve</w>
wa it</w>
s pe
h ar
gi ữ</w>
nă ng</w>
s áng</w>
7 8
v en</w>
ke ep</w>
j e
v o
k il
c ầu</w>
li ên</w>
h ôm</w>
d ụng</w>
b ình</w>
tal k</w>
ar ound</w>
be tter</w>
st and</w>
th ought</w>
ti ên</w>
tr ai</w>
ni ght</w>
đ áng</w>
a way</w>
d ùng</w>
ạ ch</w>
s y
s .</w>
ph ụ</w>
ễ n</w>
í t</w>
ph ần</w>
ag e</w>
ó a</w>
ever y</w>
bi ệt</w>
ti ve</w>
si on</w>
v ừa</w>
n y</w>
gre at</w>
lo w</w>
c king</w>
ho me</w>
ki a</w>
p la
o ld</w>
co l
tr ẻ</w>
su r
do es</w>
p r
w on</w>
pl ace</w>
s en
h ou
to ld</w>
m ust</w>
m r.</w>
or y</w>
m es</w>
c t
n ed</w>
ngh ĩa</w>
a h</w>
m er
w er</w>
1 ;</w>
&#9 1;</w>
ầ y</w>
t ting</w>
d es
lo t</w>
ho ặc</w>
thr ough</w>
c uối</w>
qu ốc</w>
ac tu
ma de</w>
every thing</w>
ế c</w>
ho àn</w>
vậ t</w>
uy ền</w>
yo ne</w>
p e</w>
é p</w>
c our
it s</w>
ar y</w>
đ ẹp</w>
c an
ệ p</w>
th ree</w>
na me</w>
v e
0 00</w>
đ ủ</w>
s er
c ap
t .</w>
ma ng</w>
ng u
k ill</w>
nh ỏ</w>
you r
g ra
b ea
g ần</w>
do es
đi ện</w>
th ương</w>
does n</w>
on s</w>
1 0</w>
fa ther</w>
m any</w>
ướ ng</w>
gu y</w>
t ch</w>
x ác</w>
sh it</w>
t ế</w>
h i</w>
al ways</w>
p p
k ind</w>
ch ar
b ác</w>
th ống</w>
gi á</w>
r õ</w>
h ệ</w>
đ ất</w>
b ay</w>
c r
chi ếc</w>
ch ờ</w>
th ần</w>
os s</w>
quy ết</w>
ac t</w>
th êm</w>
b ar
en ti
g uy
i l</w>
th ân</w>
mi s
or i
c ửa</w>
ca o</w>
k es</w>
w ar
ă m</w>
lo ại</w>
be ing</w>
ro w</w>
đ ứa</w>
th ức</w>
com ing</w>
l âu</w>
t en
c ổ</w>
actu ally</w>
d re
đ ời</w>
l es</w>
đ ội</w>
s ợ</w>
b lo
đi ểm</w>
c ra
d ù</w>
o m</w>
ki nh</w>
v ẻ</w>
li st
guy s</w>
beli eve</w>
ch a
ả m</w>
th áng</w>
qu i
ff er
tu re</w>
bi g</w>
chuy ển</w>
hea d</w>
c en
l er</w>
ca me</w>
w ro
c es</w>
d one</w>
ự a</w>
p s</w>
k ể</w>
wi th
kh ó</w>
lea ve</w>
c ri
b ri
i ght</w>
hou se</w>
u m</w>
y e</w>
đ ộ</w>
ch ứng</w>
b ot
si g
ch il
t ập</w>
b rea
ch ủ</w>
ấ m</w>
an s
mo ve</w>
b er
qu ả</w>
á º</w>
st ay</w>
il e</w>
cá m</w>
i .</w>
ea r</w>
k ế</w>
v ệ</w>
tr ời</w>
m m</w>
d ân</w>
x a</w>
ch ạy</w>
b ra
ả o</w>
some one</w>
sa me</w>
o t</w>
o wn</w>
tr ình</w>
ar t</w>
u gh
s ử</w>
m ỗi</w>
fu ck</w>
l ực</w>
th er
us ed</w>
uy ên</w>
an ge</w>
bi ến</w>
k ỳ</w>
t el
s es</w>
we e
fe el</w>
mi ght</w>
t ội</w>
al so</w>
ou s
c ư
re me
c la
ki ểm</w>
com m
b ắn</w>
n er</w>
a u
mon ey</w>
li ệu</w>
c á</w>
le ft</w>
ti ến</w>
ng ủ</w>
c tion</w>
z e</w>
un i
an other</w>
th ư</w>
dea d</w>
ng .</w>
fri end</w>
s ư</w>
a o</w>
t ử</w>
en ough</w>
ã i</w>
đ ứng</w>
mil y</w>
2 0
m ed</w>
thi ết</w>
qu ân</w>
s in
í a</w>
f ound</w>
đ àn</w>
ị u</w>
ó n</w>
ne x
ph áp</w>
di e</w>
di ffer
t ea
min u
m ở</w>
in t</w>
look ing</w>
ch ọn</w>
d ưới</w>
fu cking</w>
th ử</w>
g ot
wan ted</w>
c are</w>
yea r</w>
cour se</w>
v ọng</w>
b or
is n</w>
tr ông</w>
m ạnh</w>
under stand</w>
t ư</w>
s a</w>
uố c</w>
o l
t on</w>
ng ồi</w>
s ing</w>
đ êm</w>
hea r</w>
h ell</w>
đ ình</w>
d r
ba d</w>
quy ền</w>
wro ng</w>
ã o</w>
na m</w>
s m
hu r
h a</w>
re n
h er
gir l</w>
tr ái</w>
jo h
s n</w>
2 0</w>
xu ất</w>
ch ịu</w>
f ine</w>
po li
to day</w>
di ễn</w>
t en</w>
nex t</w>
reme mber</w>
h on
m en
mi nh</w>
l ượng</w>
happen ed</w>
th an
s ức</w>
n à</w>
d i</w>
m y
f f</w>
e .</w>
th uốc</w>
x i
n or
t ài</w>
cu r
tr ưởng</w>
đ ặc</w>
ph ố</w>
ủ ng</w>
tu ổi</w>
ki ếm</w>
ph ía</w>
tr í</w>
t es</w>
ẵ n</w>
đ ợi</w>
đ ặt</w>
l ar
hi ệu</w>
da d</w>
tal king</w>
an ds</w>
đ ô</w>
b us
co i</w>
re al</w>
s how</w>
d ri
v a</w>
đ ơn</w>
d ễ</w>
tur n</w>
d .</w>
tr ying</w>
l ess</w>
kh á</w>
in s</w>
t on
ca r</w>
ro om</w>
s ẵn</w>
c y</w>
d ent</w>
ch i</w>
ge tting</w>
c ity</w>
pl an
st e
as k</w>
m ắt</w>
l and</w>
b ài</w>
list en</w>
đ a</w>
s ắp</w>
ho ld</w>
s k
to ge
kh u</w>
mo ther</w>
i m</w>
ti mes</w>
ni ce</w>
ph á</w>
kh í</w>
ì a</w>
h al
s ha
el se</w>
ậ m</w>
le ar
c er
al s</w>
l òng</w>
su p
or s</w>
d ẫn</w>
gi áo</w>
bo y</w>
hu h</w>
sa i</w>
tr o
li ve</w>
se e
w ing</w>
tr ị</w>
hel lo</w>
đ ấu</w>
s ách</w>
be st</w>
t ty</w>
ta in</w>
nh ỉ</w>
tr anh</w>
c ấp</w>
ò a</w>
s úng</w>
bu il
d ự</w>
d ừng</w>
p t</w>
é o</w>
se con
w il
at ed</w>
ph ép</w>
m ind</w>
ù a</w>
ti nh</w>
sa w</w>
s y</w>
qu es
fa mily</w>
re s</w>
th ủ</w>
tu ần</w>
tr e
đ â</w>
ti c</w>
1 9
tr ò</w>
th ú</w>
bu r
d d
ch í</w>
c u</w>
cal led</w>
ti êu</w>
toge ther</w>
du y</w>
t ác</w>
khi ến</w>
de a</w>
j a
da m
ỉ nh</w>
ru n</w>
ủ y</w>
w ent</w>
e ng
i m
kho ảng</w>
h óa</w>
v ũ</w>
l t</w>
ó m</w>
t ương</w>
ch ắn</w>
ac k
than ks</w>
st s</w>
ct or</w>
ti m</w>
ặ ng</w>
gi ữa</w>
t ục</w>
mu a</w>
of fi
lu ật</w>
i ce</w>
đi ên</w>
g ây</w>
ma g
en ds</w>
đ au</w>
ằ m</w>
d ar
m ạng</w>
x ong</w>
ti es</w>
m ô</w>
s cho
with out</w>
ch ân</w>
v i</w>
đ ôi</w>
t ệ</w>
ex c
l in
h ơi</w>
v en
kh ách</w>
ter s</w>
li e</w>
d ra
t ô</w>
at u
ou t
bab y</w>
wa sn</w>
jo b</w>
t ượng</w>
fo l
to ok</w>
c ent</w>
p as
st ory</w>
star t</w>
ĩ nh</w>
kil led</w>
m ặc</w>
5 0</w>
ph út</w>
b an</w>
your self</w>
se en</w>
is h</w>
ne e
ộ n</w>
ci al</w>
el e
cư ời</w>
2 4
f ace</w>
me di
vi r
wh ile</w>
v ợ</w>
đị a</w>
bu ổi</w>
c ted</w>
nghi ệm</w>
gi ả</w>
b el
ph ục</w>
thu ật</w>
a go</w>
f re
al ready</w>
2 2
i dea</w>
s àng</w>
n ổi</w>
g ar
pre s
m ỹ</w>
o b
at t
ugh ter</w>
th am</w>
g ã</w>
đ u
got ta</w>
l ập</w>
d ịch</w>
bot h</w>
li on</w>
wo man</w>
wan na</w>
da ys</w>
h ạ</w>
b it</w>
who le</w>
c ây</w>
ck ed</w>
t àu</w>
on ce</w>
ch ức</w>
qu ên</w>
h .</w>
3 0</w>
ho a</w>
y et</w>
ư u</w>
br ing</w>
fe w</w>
ch ange</w>
l ly</w>
th i</w>
ẩ m</w>
ch ất</w>
sp ea
w ard</w>
kh ả</w>
nghi ệp</w>
chu ẩn</w>
f un
k en</w>
un ti
qu ái</w>
, 000</w>
vi ện</w>
le y</w>
l ạ</w>
d dy</w>
h y</w>
ea ch</w>
u p
b àn</w>
qu ý</w>
si ble</w>
li ght</w>
pre tty</w>
re st</w>
op en</w>
wa ter</w>
s on
ớ m</w>
h ướng</w>
nhi ệm</w>
vi ết</w>
m ừng</w>
w ouldn</w>
v ăn</w>
pro bl
probl em</w>
ph ạm</w>
ậ y</w>
differ ent</w>
tri ệu</w>
he ard</w>
th u</w>
k new</w>
p en
t ch
st ed</w>
tho ại</w>
s et</w>
la te</w>
e p
tion al</w>
fi ve</w>
b án</w>
dam n</w>
kh ốn</w>
f ac
th a</w>
joh n</w>
ma i</w>
ch u</w>
gi ao</w>
d anh</w>
c ou
ê ng</w>
m .</w>
sin ce</w>
h ôn</w>
h ộ</w>
th anh</w>
h and</w>
uy ện</w>
ng er</w>
th ị</w>
ever yone</w>
m áu</w>
h ard</w>
ho ạt</w>
l an
it ed</w>
th úc</w>
par t</w>
í n</w>
ph i</w>
at es</w>
g i</w>
tr uyền</w>
ph ản</w>
s le
bro ther</w>
unti l</w>
wor d</w>
hi ểm</w>
nhi êu</w>
d ge</w>
đo án</w>
d ro
n ess</w>
mor ning</w>
ú i</w>
n .</w>
b i</w>
g y</w>
ượ t</w>
l ine</w>
su ch</w>
st er
t ổng</w>
vi e
x ử</w>
m ục</w>
c ed</w>
w el
bea u
v a
la r</w>
pro te
f lo
thi ên</w>
d in
ck s</w>
ph ương</w>
ngh i</w>
tr ang</w>
mo m</w>
w in
g an</w>
or t
o d
s ou
s ản</w>
mi ss</w>
b ức</w>
be t
v ời</w>
c ăn</w>
y ên</w>
r ing</w>
t ổ</w>
t ấn</w>
v òng</w>
ph one</w>
f our</w>
ph ân</w>
h un
n ằm</w>
l ost</w>
e f
wi fe</w>
de ci
ử i</w>
scho ol</w>
c àng</w>
ca se</w>
un der</w>
th ắng</w>
pl ay</w>
cá o</w>
secon d</w>
w er
z y</w>
ma tter</w>
uy ết</w>
t t</w>
uố t</w>
3 ;</w>
&#9 3;</w>
g one</w>
tr ánh</w>
st an
wor king</w>
su y</w>
shi p</w>
x ấu</w>
an yone</w>
po int</w>
n ạn</w>
ỏ a</w>
r ồ</w>
l ạc</w>
d es</w>
ự ng</w>
1 5</w>
v al
ch ế</w>
b ước</w>
b óng</w>
in ess</w>
con tr
đ ạo</w>
gu ess</w>
h ồi</w>
s it</w>
c ộng</w>
đ ọc</w>
me et</w>
imp ort
sa ying</w>
es s
wa tch</w>
ỏ ng</w>
g s</w>
a in
ngu y</w>
n s</w>
ch ó</w>
ri ed</w>
l ã
me ans</w>
h or
re as
ng uyên</w>
ho àng</w>
ki ến</w>
rea d</w>
l y
m es
t ăng</w>
fri ends</w>
u r
wh at
m ật</w>
ho pe</w>
k a
m al
gen er
sh u
m àu</w>
phi m</w>
w ed</w>
my self</w>
ph a</w>
our s</w>
c s</w>
ki ểu</w>
ho ạch</w>
ụ i</w>
look s</w>
k ìa</w>
per i
đ óng</w>
s eri
sa ys</w>
f er
mu r
đ o</w>
r ời</w>
c lu
l or
d en
y o</w>
re la
s ci
a d</w>
we en</w>
am eri
ậ u</w>
fa r</w>
on es</w>
fi ght</w>
m us
h ồ</w>
bi r
ha ven</w>
j es
b ăng</w>
happ y</w>
m er</w>
th s</w>
gi ác</w>
kh ỏ
com es</w>
ẫ u</w>
hu man</w>
ạ p</w>
ch úc</w>
por t</w>
r oss</w>
qu anh</w>
dr in
k er</w>
cá nh</w>
h ại</w>
tho át</w>
e d
t ely</w>
fi re</w>
w on
ngh ệ</w>
đ ầy</w>
al one</w>
s ớm</w>
l ịch</w>
d ài</w>
khỏ e</w>
per son</w>
d ấu</w>
t y
c ouldn</w>
1 2</w>
chi a</w>
ch àng</w>
t ạm</w>
i c</w>
s it
dea th</w>
bi li
ề m</w>
ex ac
pro bab
he art</w>
đ ê</w>
ch ri
th ers</w>
ù i</w>
so on</w>
thin king</w>
probab ly</w>
b en
c li
ki d</w>
m ing</w>
j ack</w>
to m</w>
d ành</w>
hal f</w>
d an
th ê</w>
lea r</w>
b it
bet ween</w>
ck y</w>
ngh ỉ</w>
hi gh</w>
đ ộc</w>
d ou
ag ain
đ á</w>
b ye</w>
in side</w>
wan ts</w>
re s
mp le</w>
m ời</w>
h os
kho a</w>
h ề</w>
g la
t ức</w>
m i</w>
g ắng</w>
tru e</w>
l ệnh</w>
pos ed</w>
s ở</w>
th ậm</w>
m ong</w>
c ally</w>
m p</w>
ma u</w>
đ ông</w>
tri ển</w>
ha ving</w>
exac tly</w>
do or</w>
nghi ên</w>
thu ộc</w>
c le</w>
nu mber</w>
in a</w>
tr ợ</w>
s ếp</w>
c lear</w>
nh a</w>
m ine</w>
you ng</w>
bus iness</w>
vi d</w>
l ợi</w>
what ever</w>
7 3</w>
h o</w>
ng on</w>
t ù</w>
lo gi
a r</w>
g ửi</w>
cl ose</w>
b li
dea l</w>
chil dre
ri êng</w>
bi ển</w>
t ou
minu tes</w>
wa r</w>
ma king</w>
st ea
who a</w>
ar i
kh ủng</w>
ẹ n</w>
ti ệt</w>
r ối</w>
h ứa</w>
f il
y e
s tru
sh ed</w>
ch ống</w>
th ough</w>
ma kes</w>
e i
to mor
s uốt</w>
import ant</w>
childre n</w>
h it</w>
ton ight</w>
el s</w>
fo re
m ơ</w>
ta l</w>
nh óm</w>
r k</w>
gi ỏi</w>
f el
ta king</w>
h ands</w>
beau ti
happ en</w>
v ùng</w>
k ì</w>
again st</w>
s ơ</w>
ous ly</w>
c er</w>
d ậy</w>
d ối</w>
r un
đ ức</w>
in di
s ar
po wer</w>
ặ n</w>
a w
p le</w>
w r
ki ds</w>
b ánh</w>
ga ve</w>
poli ce</w>
star ted</w>
z ed</w>
t un
fi gu
s il
p it
every body</w>
c ess</w>
s car
ch ang
bu l
g ro
đ ám</w>
nh ập</w>
gh ts</w>
ar en</w>
go ver
fr an
th ất</w>
c ro
f l
c rea
tomor row</w>
t á</w>
blo od</w>
m ents</w>
h ạnh</w>
r ượ
s co
ng u</w>
comp le
bo ok</w>
k éo</w>
ph ủ</w>
e yes</w>
gh i</w>
wo men</w>
shu t</w>
tr ừ</w>
exc use</w>
coun try</w>
rượ u</w>
s an
m ức</w>
in for
tr ust</w>
tr ận</w>
la ter</w>
b al
e vi
b í</w>
v ực</w>
ho l
e u
mi li
m ối</w>
fr ank</w>
str e
lo ài</w>
beauti ful</w>
sp on
sa ve</w>
7 9
c ực</w>
i mag
am es</w>
ques tion</w>
sho t</w>
tr ốn</w>
ng ôi</w>
ea sy</w>
stu ff</w>
t i</w>
gi à</w>
h mm</w>
d on
gu n</w>
t ĩnh</w>
es ti
se ar
nh ật</w>
sa fe</w>
p ay</w>
ma l</w>
d ạy</w>
as ked</w>
no .</w>
cra zy</w>
1 1</w>
wa i
y ed</w>
cu t</w>
es e</w>
pre si
che ck</w>
d ữ</w>
i a</w>
si x</w>
kno ws</w>
c le
as s</w>
d ers</w>
di es</w>
b le
h and
pr in
nh ạc</w>
he al
c ử</w>
pro mi
h ours</w>
g er
m ón</w>
l ái</w>
hur t</w>
ngo ại</w>
c lo
t ment</w>
qu e
h ưởng</w>
b ed</w>
e at</w>
f act</w>
mil lion</w>
ge ts</w>
t òa</w>
thi ếu</w>
so l
nh ảy</w>
la i</w>
ọ a</w>
in v
ke y</w>
chu ng</w>
nh óc</w>
m ã</w>
l ũ</w>
è o</w>
pu bli
t ích</w>
1 00</w>
i g
ch ance</w>
th uyền</w>
th ận</w>
al most</w>
lea st</w>
ac ti
fr on
24 4</w>
ngh ị</w>
bi ểu</w>
e mp
f er</w>
d rea
some body</w>
oun ds</w>
c el
te ch
tr ách</w>
wor ry</w>
n ão</w>
se cre
th uyết</w>
be h
th ái</w>
in ed</w>
t ụi</w>
x ét</w>
c ts</w>
x ã</w>
to wn</w>
f la
ị t</w>
yo rk</w>
x ây</w>
ng ăn</w>
n ổ</w>
l an</w>
di ed</w>
đ ỡ</w>
vi ce</w>
cl os
ch ồng</w>
si ng
th ẳng</w>
ga me</w>
k o
ta i</w>
d ựng</w>
d u</w>
ex pe
ca tion</w>
ó t</w>
gi ảm</w>
ẩ u</w>
sup posed</w>
v in
re spon
it .</w>
tr ans
c tive</w>
ng ờ</w>
b ữa</w>
đ ùa</w>
đ em</w>
h ẹn</w>
đư ơ</w>
wo w</w>
o ver
p ap
d ev
th ầy</w>
t ar
ra id</w>
đ ổ</w>
tr ea
ap s</w>
t ây</w>
l ựa</w>
f ree</w>
1 9</w>
ng ốc</w>
i re</w>
su b
st em</w>
r àng</w>
beh ind</w>
l ắng</w>
s al
è n</w>
cu ng</w>
el d</w>
spea k</w>
2 73</w>
reas on</w>
bu ồn</w>
lor d</w>
wal k</w>
us ing</w>
tea m</w>
b la
c ắt</w>
mo ment</w>
kh u
en ing</w>
s us
g er</w>
brea k</w>
ti ết</w>
đ en</w>
ch ấp</w>
ch e</w>
z ing</w>
qu ite</w>
d en</w>
h y
c ẩn</w>
to p</w>
minu te</w>
fo od</w>
qu en</w>
ng a</w>
ẩ y</w>
chuy ến</w>
ma tion</w>
li nh</w>
c ư</w>
ali ve</w>
ch ương</w>
pi c
b and</w>
ta ble</w>
kho an</w>
h ầu</w>
pro f
presi dent</w>
m et</w>
n ửa</w>
da ughter</w>
op er
ngu ồn</w>
l ệ</w>
ch âu</w>
fe ct</w>
đ ảm</w>
é m</w>
wh ite</w>
k ý</w>
pi e
no body</w>
d ly</w>
af raid</w>
n è</w>
e f</w>
a ma
li ves</w>
chil d</w>
cu l
nghi êm</w>
vo l
l ửa</w>
ẳ n</w>
m ãi</w>
õ i</w>
m my</w>
kh ăn</w>
di ện</w>
go es</w>
s k</w>
st ate</w>
y ếu</w>
gover n
pos i
do l
n atu
car e
w ish</w>
p ed</w>
fu ll</w>
y a</w>
pro du
ne y</w>
cap tain</w>
ki m</w>
c ầm</w>
bl ack</w>
ch ả</w>
tiế c</w>
k ích</w>
ex peri
d ây</w>
h ạn</w>
b s</w>
ar ing</w>
di re
so lu
bu ộc</w>
nh ờ</w>
ch ăm</w>
pl an</w>
ti e</w>
ans wer</w>
kh óa</w>
g in
fa st</w>
fron t</w>
gi ản</w>
be come</w>
drin k</w>
m b</w>
nh ắc</w>
nee ds</w>
mon ths</w>
ph ẩm</w>
p ea
v ượt</w>
ồ m</w>
ne ws</w>
for get</w>
sel ves</w>
đu ổi</w>
h ủy</w>
k ỹ</w>
contr ol</w>
sle ep</w>
th y</w>
chuy ên</w>
đo ạn</w>
m ắn</w>
ph í</w>
c .</w>
bili ty</w>
tr ou
qu y</w>
pa ti
22 4</w>
m on</w>
p er</w>
do ctor</w>
vu a</w>
sa m</w>
b ắc</w>
sig n</w>
s âu</w>
qu ần</w>
wee k</w>
nà ng</w>
sy stem</w>
g a</w>
ear th</w>
d ding</w>
ụ p</w>
sh all</w>
h us
ư ơ</w>
me .</w>
ch ed</w>
a .</w>
el ing</w>
p ing</w>
st e</w>
d ang
th â</w>
ộ p</w>
d r.</w>
col le
th ả</w>
20 0
ce pt</w>
l ính</w>
ch ừng</w>
th ù</w>
t est</w>
l in</w>
lớ p</w>
k i</w>
tru th</w>
ge or
h ẳn</w>
or der</w>
e li
c ũ</w>
wai ting</w>
m os
b ại</w>
r ô</w>
ki ện</w>
sm all</w>
lo gy</w>
n ội</w>
c â</w>
n et</w>
ã n</w>
x úc</w>
wh e
r us
li ver</w>
gh ét</w>
comp any</w>
s ent</w>
out side</w>
so át</w>
ca mer
tri ed</w>
par ty</w>
ki ếp</w>
t ín</w>
p an
your s</w>
f ar
s end</w>
br ought</w>
hos pit
v àng</w>
si ster</w>
hi gh
w in</w>
ngư ơ</w>
sa ng</w>
v ết</w>
c uốn</w>
fu ture</w>
ei ther</w>
lã nh</w>
l ev
sen se</w>
any more</w>
ha ng</w>
d ru
kh ai</w>
o s</w>
si ve</w>
t ồn</w>
ni e</w>
lu ận</w>
h òa</w>
en s</w>
bi nh</w>
u l</w>
w .</w>
wel come</w>
yea h.</w>
t ỉnh</w>
sho ot</w>
jes us</w>
gi ấy</w>
te mp
t ận</w>
an e</w>
ph úc</w>
a ir</w>
h át</w>
at or</w>
li ving</w>
bi l
cou ple</w>
tel ling</w>
l á</w>
in ing</w>
ng ựa</w>
per son
c ạnh</w>
f al
nhi ễ
mi cha
w ea
d ục</w>
p at
s ea
gr ou
l ầm</w>
n óng</w>
u ng</w>
h ậu</w>
k a</w>
78 4
vậ n</w>
fi eld</w>
bit ch</w>
tr ải</w>
ta ken</w>
v â</w>
c ưới</w>
ti o</w>
gir ls</w>
l ễ</w>
kno wn</w>
d ụ</w>
ti ểu</w>
v an
some times</w>
vir us</w>
ma te</w>
ra l</w>
fu n</w>
bra in</w>
đo àn</w>
n er
w ear</w>
m r
l en</w>
pa st</w>
can not</w>
c à</w>
i on</w>
b ang</w>
sor t</w>
h an
or t</w>
th ô</w>
t ố</w>
4 0</w>
pu r
d el
u ght</w>
đ ạn</w>
ướ p</w>
th re
m el
do m</w>
l ão</w>
fa v
es .</w>
na tional</w>
ma ster</w>
p op
l í</w>
tr ực</w>
vi l
kh ắp</w>
tr ắng</w>
ph ù</w>
won der
j ames</w>
str a
thu ận</w>
offi ce</w>
6 0</w>
con ne
thi r
m o</w>
r an
ma s</w>
c ụ</w>
d ence</w>
g es</w>
run ning</w>
ch ing</w>
re ali
spe ci
wa tch
vi de
micha el</w>
la dy</w>
a ir
ne i
i se</w>
đ ằng</w>
s tri
đ ột</w>
phi ền</w>
pi ck</w>
ữ u</w>
ch ữa</w>
s we
govern ment</w>
promi se</w>
1 0
la u
c ơn</w>
t ấm</w>
e x</w>
per cent</w>
bo ys</w>
s li
k ính</w>
ch es</w>
pos sible</w>
l ose</w>
ph óng</w>
gr ound</w>
con ti
h ữu</w>
ba r</w>
qu ản</w>
co ver
l ối</w>
any way</w>
pl ac
je ct</w>
c y
s óc</w>
hus band</w>
ti ệc</w>
r ơi</w>
con t
tr ac
con si
par ents</w>
&apos ;
ứ t</w>
m ou
tur ned</w>
l on
s ửa</w>
al ong</w>
re cor
d ám</w>
for m</w>
co ol</w>
n ỗi</w>
ck er</w>
nhiễ m</w>
c ướp</w>
la ughter</w>
ư ỡ
mis sion</w>
infor mation</w>
buil ding</w>
see ms</w>
t ot
es ting</w>
b en</w>
ú y</w>
ng ạc</w>
z z
it h</w>
or g
k in
m ái</w>
o c
happen s</w>
p us
b lu
t ary</w>
gen t
đ ảo</w>
se cur
par ti
per h
k en
wor ds</w>
trou ble</w>
l ạnh</w>
b on
l i</w>
g al
l ưu</w>
fol low</w>
pe ter</w>
mar k</w>
t ầm</w>
gh t.</w>
perh aps</w>
b an
ị p</w>
hon ey</w>
th ịt</w>
w ers</w>
dev el
ir s</w>
d õi</w>
s ân</w>
r ắc</w>
de f
su pp
so ci
ph ong</w>
ph o
ằ n</w>
hu y</w>
m ẫu</w>
đ ỏ</w>
comp u
n ặng</w>
t an</w>
ờ n</w>
ex pla
b ầu</w>
po in
b all</w>
ap pro
ma ch
me e
ra di
wor ks</w>
qu ỷ</w>
sear ch</w>
m ắc</w>
h our</w>
bi ê</w>
x anh</w>
ho t</w>
t óc</w>
x ếp</w>
ha te</w>
lear n</w>
le g
d ạng</w>
r ộng</w>
bu y</w>
v an</w>
co ver</w>
t ôn</w>
do g</w>
j er
mar y</w>
c ru
b o</w>
k ỷ</w>
ấ c</w>
sur pri
secur ity</w>
ộ m</w>
t or
ch an
a head</w>
78 7
we ap
tr ại</w>
ò i</w>
c in
o thers</w>
al ity</w>
v í</w>
tra v
spe cial</w>
s ong</w>
kh ẩu</w>
gi ây</w>
u l
o w
st op
mo ving</w>
gi ám</w>
b ốn</w>
l ộ</w>
c ưng</w>
tech no
hospit al</w>
hi m
c ing</w>
s la
m ùa</w>
publi c</w>
da vid</w>
se x</w>
n ền</w>
y er</w>
h en
coun t</w>
you .</w>
c ti
st an</w>
p h</w>
stre et</w>
ar ed</w>
z o
ter ri
ng ân</w>
b ru
xu ng</w>
to án</w>
t ướng</w>
s ound</w>
d enti
p id</w>
any body</w>
2 5</w>
t úi</w>
g ri
at ely</w>
vide o</w>
gr and
dd le</w>
1 3</w>
ầ ng</w>
n ối</w>
th ous
tr ạng</w>
l uyện</w>
kh ôn</w>
dri ve</w>
mar ried</w>
figu re</w>
mi c</w>
i e</w>
mb ers</w>
lo ck</w>
su n
fe eling</w>
ệ ng</w>
b oss</w>
a ting</w>
ac ross</w>
f le
đ ấ</w>
s ăn</w>
sa ge</w>
sur vi
pre ci
1 7</w>
th ượng</w>
ph ê</w>
si êu</w>
mi ệng</w>
st y</w>
lo ạn</w>
gi ận</w>
th ăm</w>
pu ll</w>
ch ụp</w>
v ơ</w>
ra ch
r út</w>
ma t
ar s</w>
d an</w>
ã y</w>
an a</w>
gg er</w>
at e
do w
gr ap
c ã</w>
th ỏa</w>
d ĩ</w>
ọ t</w>
cu s</w>
a y.</w>
ar e
uni ver
t ầng</w>
la w</w>
pie ce</w>
p al
st ep</w>
min i
gi ven</w>
wor th</w>
kh ám</w>
3 2</w>
re por
l ỗ</w>
prote ct</w>
l ừa</w>
go od
o .</w>
m r</w>
stu pid</w>
pp ed</w>
đ ẩy</w>
fun ny</w>
chi m</w>
tr ăm</w>
har ry</w>
đ ạt</w>
stan ding</w>
mi ke</w>
th ở</w>
h út</w>
as king</w>
bo m</w>
wa ke</w>
gent le
j im</w>
se ven</w>
z a
fu lly</w>
1 8</w>
g un
vie t
go o
s an</w>
ce p
hur ry</w>
de li
d ương</w>
t ồi</w>
ta in
r ồ
fi c</w>
tou ch</w>
2 3
rach el</w>
nu ôi</w>
đ ích</w>
gener al</w>
e ts</w>
l ou
bor n</w>
f li
bi ll</w>
cho ice</w>
gi n</w>
heal th</w>
fol lo
mi sta
wo od</w>
t or</w>
lo nger</w>
fi gh
ap pe
him self</w>
lea ving</w>
t ờ</w>
s cre
tr ộm</w>
th ánh</w>
g lo
1 4</w>
ch ữ</w>
t te</w>
fin ally</w>
ber t</w>
conti nu
co p
for d</w>
fe et</w>
d ate</w>
ci a</w>
ch er</w>
do w</w>
r ay</w>
imag ine</w>
un ited</w>
b ào</w>
s ắc</w>
e ye</w>
ng ừng</w>
vi ệt</w>
kh ắc</w>
at ten
sp ace</w>
t ốc</w>
s áu</w>
ok ay.</w>
ro b
sh ouldn</w>
h ộp</w>
s ạch</w>
t ạp</w>
v ely</w>
jo ey</w>
m c
m ôi</w>
s qu
f all</w>
m ư
c os
happen ing</w>
ce i
t ường</w>
li sh</w>
pla ying</w>
si ck</w>
qu án</w>
geor ge</w>
si on
char lie</w>
da ddy</w>
ameri can</w>
de te
p ot
l en
o logi
th ừa</w>
c ess
ro ad</w>
wee ks</w>
b ack
look ed</w>
in cre
ep ing</w>
b re
e m
th ủy</w>
rồ i.</w>
do anh</w>
sou th</w>
des tro
des er
la w
fi sh</w>
d òng</w>
dro p</w>
m ea
h ồn</w>
s ounds</w>
ch ặn</w>
seri ous</w>
der ed</w>
da m</w>
ci r
co ng
ti ce</w>
per fect</w>
go d
t r</w>
y si
ma j
kh ởi</w>
in es</w>
1 6</w>
thu ê</w>
stea d</w>
t ex
wor ked</w>
fre e
ch à</w>
fe e</w>
que en</w>
h ạt</w>
m á</w>
c ting</w>
ti ện</w>
nee ded</w>
m it</w>
ch ạm</w>
h ọ
us u
co ld</w>
s mar
ng uyện</w>
su c
tr ụ</w>
su l
pu l
t í</w>
kh o</w>
mus ic</w>
cla ire</w>
chang ed</w>
ư ờn</w>
ques tions</w>
u lt</w>
kh ỉ</w>
b ận</w>
re turn</w>
c tions</w>
se em</w>
r is</w>
ng àn</w>
đ ón</w>
gi ving</w>
v ương</w>
ch iều</w>
k ẹ
grou p</w>
ma s
fi ed</w>
devel op
ta kes</w>
m ùi</w>
m it
in clu
bi a</w>
x o
r o</w>
t ắt</w>
r ừng</w>
du ring</w>
par t
h ùng</w>
w all</w>
là nh</w>
secre t</w>
cle an</w>
đ ài</w>
h ơ</w>
c ục</w>
hi story</w>
sing le</w>
ri ght.</w>
nor th</w>
st or
sp o
g or
with in</w>
hi ệp</w>
gu e</w>
đ e</w>
nh ắn</w>
th í</w>
st ates</w>
scar ed</w>
u .</w>
n ắm</w>
ù m</w>
me mor
ra ther</w>
qu e</w>
dea r</w>
jo y</w>
dre ss</w>
n úi</w>
b at
la tion</w>
in stead</w>
gi ơ</w>
d àng</w>
da ta</w>
si ons</w>
gi ấu</w>
h ứng</w>
bu n
th ro
ab o
gre at
see ing</w>
g en</w>
re spe
ti cal</w>
s ót</w>
2 00</w>
ear ly</w>
lu cky</w>
ter r
r os
su m
ph ận</w>
i ca</w>
v ai</w>
s trong</w>
ab solu
e o</w>
k h</w>
jo e</w>
đ ập</w>
ũ i</w>
m ê</w>
un ch</w>
f ra
sp ir
ca ted</w>
ma in</w>
t ã</w>
lu ck</w>
ni ềm</w>
f fi
ap e</w>
ar ti
gh t
b ly</w>
đ ống</w>
v ẽ</w>
enti re</w>
cậ p</w>
ca tch</w>
hu man
r y
t ộc</w>
po or</w>
ngư ợc</w>
v ã</w>
t an
d ance</w>
m ot
is su
an ti
e ight</w>
tri es</w>
si mple</w>
mar k
din ner</w>
k ar
fel t</w>
mil es</w>
tu y</w>
pic ture</w>
t àn</w>
k êu</w>
t el</w>
đ ói</w>
la o</w>
ag ent</w>
thi ện</w>
n ợ</w>
att ack</w>
in e
w est</w>
on .</w>
de fin
h ỏng</w>
en er
j us
t v</w>
h uy
đ ào</w>
th ề</w>
đư ợ</w>
ngư ờ</w>
gu ar
. 000</w>
mi ễn</w>
m oun
lea d</w>
co f
o w</w>
2 4</w>
b ạc</w>
al le
n one</w>
tru y</w>
l ặng</w>
k in</w>
h ảo</w>
f an
un k</w>
bo t</w>
cậ n</w>
some where</w>
wr ite</w>
dang er
fu r
di ệt</w>
r ac
con cer
ori es</w>
vie w</w>
tr ấn</w>
đ ế</w>
ch ậm</w>
al ex</w>
nhi ệt</w>
ph u</w>
gi ấc</w>
co g
war ds</w>
d ọn</w>
ac tion</w>
beli ev
c ell</w>
lar s</w>
tr an
b ạo</w>
il s</w>
a tions</w>
o liver</w>
g as</w>
al lo
su per
đ èn</w>
l os
kho ản</w>
đ ốc</w>
mee ting</w>
mi ddle</w>
u n</w>
d ọa</w>
s wee
org ani
g ồm</w>
t ắm</w>
ex a
mr s.</w>
pa in</w>
5 00</w>
drea m</w>
d ựa</w>
st ers</w>
s ẻ</w>
thi ệt</w>
t ỷ</w>
ng e</w>
h ào</w>
au th
ch ặt</w>
0 ,000</w>
fa ir</w>
du de</w>
ck et</w>
sit u
ama zing</w>
du ng</w>
ma gi
kh ô
gi ường</w>
tuy ên</w>
ph ysi
wer en</w>
m ìn</w>
sp i
v y</w>
in vol
en e
ele c
pro gra
j os
dis ea
8 0</w>
cal ling</w>
ar my</w>
n al</w>
f ear</w>
ế ng</w>
for ce</w>
ni nh</w>
ng ữ</w>
dar k</w>
ng ton</w>
ar ri
qu à</w>
d ents</w>
b et</w>
se a</w>
c lear
h ấp</w>
comm uni
for tun
un less</w>
re port</w>
n es
ha ir</w>
are a</w>
f ly</w>
d ính</w>
u .
re li
n ém</w>
cen tr
buil d</w>
en tly</w>
la s</w>
sh e
pa ul</w>
ar m</w>
ó p</w>
ca mp
th in</w>
pri v
blu e</w>
ặ m</w>
t ổn</w>
z e
bo ard</w>
bo x</w>
ki e</w>
t ái</w>
f bi</w>
x uyên</w>
ea st</w>
tu res</w>
th ang</w>
sk y</w>
li st</w>
kh ổ</w>
sti c</w>
we ir
&apos; s</w>
ng ôn</w>
inter net</w>
78 9
sh are</w>
j im
gentle men</w>
wor se</w>
comple tely</w>
m mm</w>
ô i.</w>
kil ling</w>
tra o</w>
s ổ</w>
posi tion</w>
mu ộn</w>
ch áy</w>
xi nh</w>
ho od</w>
sp ar
th ơ</w>
l ương</w>
ta tion</w>
v al</w>
plan e</w>
swe et</w>
r an</w>
bu ddy</w>
ch án</w>
expla in</w>
ch ảy</w>
. ...</w>
v ỡ</w>
ma x</w>
be at</w>
ó .</w>
ti ê</w>
th ập</w>
af ri
ơ m</w>
z i
mes sage</w>
whe ther</w>
ượ n</w>
m àn</w>
c us
ri de</w>
e con
s n
pro ble
khi ển</w>
v ậ</w>
ob vi
camer a</w>
ho ang</w>
c ải</w>
st ance</w>
ph ức</w>
mon th</w>
ex i
sh ing</w>
il ed</w>
care ful</w>
di tion</w>
ti ll</w>
pas s</w>
pres ent</w>
ba g</w>
sh er
th ấp</w>
deci ded</w>
d ần</w>
a i
thu a</w>
d ying</w>
re lea
ng ing</w>
l ô</w>
ba si
cog ni
in de
val u
li es</w>
mach ine</w>
lon don</w>
qui ck
bo b</w>
x ứng</w>
ph án</w>
ca te</w>
b al</w>
th row</w>
po wer
vi e</w>
stra ight</w>
inter esting</w>
b er</w>
cover ed</w>
ch ìa</w>
h ô</w>
th ẩm</w>
họ p</w>
t u</w>
joh n
s óng</w>
h h</w>
qu ar
kh óc</w>
h ài</w>
de ep</w>
cre ate</w>
t ải</w>
n ông</w>
ter i
re si
c ân</w>
sh ar
t ắc</w>
ac cor
pr acti
pa in
24 3</w>
ma ge</w>
lo ved</w>
h ải</w>
h ỗ</w>
man ag
st one</w>
me ant</w>
watch ing</w>
no r</w>
cof fee</w>
b ò</w>
qui ck</w>
tr ùng</w>
plan et</w>
à m</w>
wil li
tu ng</w>
l ưng</w>
e mer
re cei
ci ally</w>
vo ice</w>
absolu tely</w>
h ổ</w>
cl ar
sol di
k y</w>
g ấp</w>
tel li
ớ t</w>
nh â</w>
g n
compu ter</w>
bo ok
b ank</w>
h ỏa</w>
gla d</w>
di ffi
t ỏ</w>
es cap
gre en</w>
gi ọng</w>
sci enti
p sy
of f
nh ầm</w>
d ị</w>
sci ence</w>
gh ế</w>
co vid</w>
tr ain</w>
th ưởng</w>
bo y
s ông</w>
ph ot
pati ent</w>
fa ult</w>
econ o
ti cs</w>
t le</w>
str o
q u</w>
ma d</w>
danger ous</w>
l ã</w>
i denti
t úc</w>
79 0
atten tion</w>
r ou
tr i</w>
l ying</w>
chi ếm</w>
un cle</w>
da o</w>
d ặm</w>
ch in
nor mal</w>
78 8
k u
ci dent</w>
g on</w>
thir d</w>
nh ẫn</w>
techno logy</w>
s si
me xi
ke pt</w>
en ter
mis sing</w>
dan ny</w>
pre ss</w>
par is</w>
of ten</w>
v ĩ</w>
rus si
maj or</w>
lev el</w>
mu l
so cial</w>
d ầu</w>
huy nh</w>
con ver
cal m</w>
4 32</w>
h à</w>
c tly</w>
t ỉ</w>
fa mili
bo at</w>
t án</w>
ư ợc</w>
ch ina</w>
s is</w>
b á</w>
th ờ</w>
il y</w>
jim my</w>
comp li
ri ch
mo ved</w>
ser vice</w>
le o</w>
inter e
bar ry</w>
m ệt</w>
ch ối</w>
sa ved</w>
k ers</w>
e ment</w>
vil la
mou th</w>
đ áp</w>
ex cept</w>
j our
cal i
e du
ca ught</w>
k ịch</w>
v in</w>
è m</w>
re gi
sta r</w>
g à</w>
experi ence</w>
person al</w>
n on</w>
cer tain</w>
ni ệm</w>
h ầm</w>
su n</w>
g ed</w>
ameri ca</w>
m ộ</w>
fu ck
l .</w>
b è</w>
j ack
ang el
ne w
ou d</w>
cả n</w>
p lo
z a</w>
b att
vi nh</w>
sh ort</w>
pp ing</w>
bi ên</w>
ý t</w>
pos si
é n</w>
in no
chu ột</w>
sig ned</w>
m ôn</w>
ac y</w>
đi ê</w>
d y
phi ếu</w>
n ers</w>
expe ct</w>
tr ễ</w>
m ạch</w>
le e</w>
e k</w>
m ũi</w>
ho w
pea ce</w>
go ld</w>
mư ời</w>
t wi
weir d</w>
in ten
ch and
ener gy</w>
gg est</w>
x i</w>
pop u
l ĩnh</w>
mon ica</w>
pro vi
hu ng</w>
gi ó</w>
figh ting</w>
an na</w>
cla ss</w>
th ách</w>
s ell</w>
buil t</w>
par k</w>
n ã</w>
s i</w>
proble ms</w>
b t</w>
sp end</w>
x ương</w>
t ặng</w>
situ ation</w>
gi àu</w>
th ai</w>
o oh</w>
ch ư</w>
l ê</w>
se ver
wonder ful</w>
ri sk</w>
đu a</w>
in i
quick ly</w>
la ugh
chi ếu</w>
af ter
pri son</w>
ngh ề</w>
h ồng</w>
s cen
ma il</w>
t ả</w>
re cogni
mur der</w>
accor ding</w>
co de</w>
b by</w>
ri ch</w>
n ear</w>
for ward</w>
f y</w>
nh ẹ</w>
c es
go l
si mp
ro bot</w>
h ư</w>
comm un
qui et</w>
men tal</w>
es pe
in d
cur ren
thi ệu</w>
e st
as su
i di
dol lars</w>
exa mple</w>
lo cal</w>
of fer</w>
2 1</w>
lo s</w>
gi am</w>
pa id</w>
inv esti
v ê</w>
o me</w>
viet nam</w>
sta irs</w>
nei gh
l ục</w>
bả y</w>
ẫ y</w>
al right</w>
up on</w>
s wi
sit ting</w>
t óm</w>
rela tion
ki dding</w>
ig n</w>
s u</w>
ex pl
th ảm</w>
smar t</w>
fin ish</w>
h an</w>
at h</w>
t end</w>
sti ck</w>
ph ó</w>
fin i
b ả</w>
x u</w>
gi e</w>
ph ạt</w>
cu lt</w>
con fir
m ous</w>
n d</w>
m ẽ</w>
ừ m</w>
j en
seri ously</w>
s lo
ụ t</w>
tho ải</w>
the m
l er
jo in</w>
chand ler</w>
on a</w>
medi cal</w>
s ạn</w>
any where</w>
ti red</w>
bi e</w>
o x
ha m</w>
v ớ</w>
de l</w>
bu s</w>
mista ke</w>
bir th
evi dence</w>
tur ns</w>
eng lish</w>
c ờ</w>
sp ent</w>
won der</w>
com for
đ ảng</w>
v ac
m ệnh</w>
n ô</w>
mal e</w>
th ảo</w>
hã i</w>
flo or</w>
al e</w>
p ra
h ọa</w>
c ứng</w>
l ẫn</w>
natu re</w>
mi d
wi se</w>
con f
offi cer</w>
hon or</w>
ye ster
fore ver</w>
la dies</w>
ủ i</w>
ro ck</w>
b ạ</w>
d red</w>
at s</w>
col on
l ùi</w>
chi ef</w>
z ation</w>
and a</w>
p ose</w>
cer tain
st ation</w>
c ỡ</w>
sar ah</w>
o p</w>
cr os
r ằn</w>
wr it
imp os
đ ốt</w>
c ú</w>
đ ăng</w>
ci vi
me an
s our
or din
hand le</w>
mb er
s low</w>
app ed</w>
s ity</w>
bro ke</w>
ch ứa</w>
ù y</w>
parti cu
in fe
ni ên</w>
mis sed</w>
khô ng.</w>
m ảnh</w>
ga r</w>
c ặp</w>
b ụng</w>
b on</w>
s mo
cont act</w>
ac ked</w>
ni a</w>
ca m</w>
vi ol
ne ar
đ ồn</w>
lear ned</w>
đ eo</w>
t â</w>
9 0</w>
rea ch</w>
ngo an</w>
m or</w>
f lu
en ed</w>
d ani
s word</w>
n an
st le</w>
be came</w>
th ợ</w>
god damn</w>
o dy</w>
lan gu
la tions</w>
k it
ha m
ng ục</w>
ng ành</w>
terri ble</w>
j an
e cu
got ten</w>
eu ro
li ed</w>
- i</w>
w a</w>
her e.</w>
c at</w>
z en</w>
mil e</w>
fi x</w>
tr ống</w>
g óc</w>
78 5
us es</w>
radi o</w>
ph il
spea king</w>
p in
l ạy</w>
yester day</w>
sup port</w>
đi ệp</w>
ser ve</w>
lar ge</w>
k ê</w>
tea ch</w>
g ate</w>
f ell</w>
coun tries</w>
đâ m</w>
can cer</w>
0 0
ch alle
ot s</w>
hun dred</w>
7 0</w>
diffi cult</w>
n ine</w>
e mb
char ge</w>
s and
kh ối</w>
en ty</w>
qu ang</w>
en ces</w>
e mily</w>
cu sto
ni ck</w>
m ông</w>
ki ss</w>
el l
w ri
secon ds</w>
ad a</w>
ti ny</w>
mu ô</w>
de par
cu re</w>
il l
e ty</w>
j ap
tot ally</w>
th es</w>
re search</w>
ng ắn</w>
đư ơng</w>
ch ấm</w>
ki d
he ar
đị ch</w>
str ange</w>
y le</w>
wor ried</w>
qu ảng</w>
differ ence</w>
v ân</w>
b ật</w>
u re</w>
b ơi</w>
hi de</w>
dd en</w>
reali ze</w>
incre di
ho ly</w>
fo ot</w>
b os
tal ked</w>
respe ct</w>
op por
l ôi</w>
chin ese</w>
vi sion</w>
b ội</w>
vir on
kh ứ</w>
ag re
thin ks</w>
cour t</w>
stop ped</w>
be gin
en viron
c ard</w>
n ar
cor re
re ly</w>
i an</w>
si des</w>
dow n
chu r
s ite</w>
priv ate</w>
se .</w>
oun ded</w>
def en
co p</w>
b ãi</w>
r ăng</w>
stu dy</w>
ne l</w>
d ạ</w>
them selves</w>
star ting</w>
k ni
a ah</w>
sti tu
v ity</w>
ph ẫu</w>
b ờ</w>
a va
đ òi</w>
v o</w>
lã ng</w>
ki ng
d or
kh uyên</w>
c ãi</w>
b low</w>
h m</w>
tr úc</w>
th ải</w>
s es
de ta
th ám</w>
ng ọn</w>
wal king</w>
mo on</w>
ư ớ</w>
sh h</w>
s ứ</w>
pap er</w>
m als</w>
gh ê</w>
chri sti
is land</w>
sh el
tri ck</w>
chri st</w>
im medi
hor se</w>
r ác</w>
f ren
ri ver</w>
li k
di sa
bur n</w>
ru les</w>
sar a</w>
disea se</w>
plac es</w>
o ls</w>
it ely</w>
ho ảng</w>
ti s
sus pe
g ắn</w>
sto od</w>
hen ry</w>
evi l</w>
mark et</w>
de vi
ap preci
an n
pp er</w>
n âng</w>
o grap
se y</w>
t ạ</w>
li a</w>
di a</w>
ù n</w>
tr o</w>
tuy ến</w>
di r
dete ctive</w>
vi ê</w>
al ing</w>
đi .</w>
d na</w>
hu ng
co a
ch ỉnh</w>
vi ct
ba sed</w>
th ẻ</w>
mili tary</w>
quy ển</w>
r y.</w>
ton y</w>
ok ing</w>
ng ã</w>
bil lion</w>
how ever</w>
lo ts</w>
bả ng</w>
our selves</w>
m èo</w>
for give</w>
a us
st .</w>
ea ting</w>
t ùy</w>
cri min
cho ose</w>
birth day</w>
st ories</w>
gi ày</w>
pr os
phi ên</w>
c ấm</w>
su it</w>
c ine</w>
đ u</w>
li ved</w>
al low</w>
supp ose</w>
ê nh</w>
i es</w>
g row</w>
ev ening</w>
bro ken</w>
sa tion</w>
l es
c ture</w>
gu ard</w>
cri me</w>
cop y</w>
ap ar
wa shi
mo ther
đ ựng</w>
sti n
p il
ne cess
r ace</w>
khi ếp</w>
dis cus
c ắp</w>
g le</w>
ch en</w>
l and
certain ly</w>
ca ses</w>
her o</w>
ho le</w>
c ăng</w>
mar ch</w>
du e</w>
espe cially</w>
en a</w>
ag es</w>
na med</w>
ưỡ ng</w>
p es</w>
li ons</w>
we dding</w>
i .
o ce
ưỡ i</w>
defin itely</w>
rich ard</w>
intere sted</w>
as sa
kno w
ac cess</w>
book s</w>
nhi ê</w>
gi ai</w>
wo l
c ấu</w>
ha sn</w>
s in</w>
kẹ t</w>
da ve</w>
comm it
recor d</w>
đ ỉnh</w>
chuy ê</w>
ch ris</w>
x âm</w>
b ac
s wear</w>
fini shed</w>
car ri
s sed</w>
r ound</w>
đ ệ</w>
and re
hu ge</w>
ho tel</w>
ta ge</w>
st and
deci sion</w>
k í</w>
commun ity</w>
en joy</w>
là ng</w>
co ps</w>
b ày</w>
kh ẩn</w>
st ard</w>
tre o</w>
st ore</w>
g ốc</w>
li er</w>
cen tu
r on
ng ại</w>
bul l
j ane</w>
re qui
be yo
ver s</w>
lik ely</w>
kil ler</w>
bi lly</w>
x ưa</w>
v ot
tr ần</w>
ti a</w>
on a
s ô</w>
7 2</w>
t ter
sm ell</w>
k ĩ</w>
na tion</w>
h àn</w>
a bility</w>
m ưa</w>
as si
tr ì</w>
fe els</w>
a c</w>
tri bu
c ele
power ful</w>
clo thes</w>
weap ons</w>
s .
r ửa</w>
ani mals</w>
3 00</w>
ph ỏng</w>
glo bal</w>
22 5</w>
ste in</w>
dru g</w>
ci s
pri ce</w>
c anh</w>
magi c</w>
z er
is m</w>
ap ologi
bus y</w>
la ng</w>
ng ón</w>
we aring</w>
ng ang</w>
inclu ding</w>
pl es</w>
na h</w>
d ì</w>
bo mb</w>
natu ral</w>
leg al</w>
pro ject</w>
e qu
kno w.</w>
mon d</w>
tar get</w>
h á</w>
cr oss</w>
comm on</w>
pro cess</w>
h ò</w>
continu e</w>
ngh èo</w>
y es.</w>
p .</w>
ng h</w>
f light</w>
washi ngton</w>
hu ấn</w>
chri st
mexi co</w>
fur ther</w>
f it</w>
begin ning</w>
to mmy</w>
ess or</w>
st ant</w>
ang er</w>
e mo
ỡ ng</w>
nh ắm</w>
g y
be l</w>
ch ai</w>
đ ư</w>
ef fe
cen ter</w>
re gu
pus h</w>
ro bert</w>
f as
car l</w>
ty pe</w>
gu il
beyo nd</w>
c ost</w>
kh ổng</w>
fav or
tre e</w>
1 8
nh ấ</w>
good bye</w>
k ev
gun s</w>
ed die</w>
stu dents</w>
tr ưa</w>
rea ding</w>
fo ot
or ity</w>
r ap
gra b</w>
er ing</w>
m ers</w>
787 1</w>
h ối</w>
rela x</w>
pho e
mo vie</w>
cal ls</w>
wh ose</w>
mini ster</w>
t ách</w>
st eve</w>
com pe
s ch
colle ge</w>
d ường</w>
nh i</w>
car ry</w>
pr oud</w>
u. s.</w>
gi ves</w>
willi am</w>
spe ed</w>
invol ved</w>
i dea
th at
be gin</w>
as sho
đ ậu</w>
sever al</w>
ja ke</w>
cali for
đ ấ
tre at</w>
thous ands</w>
pre sen
impos sible</w>
st on</w>
mar ry</w>
thous and</w>
khu ôn</w>
gir l
follo wing</w>
l â</w>
c ởi</w>
k ỉ</w>
go .</w>
h it
be th</w>
mi ếng</w>
mi r
ma ma</w>
g l
b ám</w>
r ồng</w>
depar tment</w>
cl es</w>
c ổng</w>
b ing</w>
k .</w>
ba stard</w>
bi gger</w>
mar tin</w>
gg ing</w>
y u
ti tu
ch óng</w>
al d</w>
vin ce</w>
s c
prof essor</w>
l ap
t ơ</w>
f rea
cap it
k ịp</w>
s ses</w>
se at</w>
le tter</w>
simp ly</w>
no on</w>
nà y.</w>
ju d
bi ế</w>
nh á</w>
wro te</w>
sho p</w>
it self</w>
ro o
l ay</w>
hol ding</w>
c ất</w>
ga tion</w>
fren ch</w>
a .
phoe be</w>
y el
obvi ously</w>
ro me</w>
pre par
ch ủng</w>
w ind</w>
sk in</w>
al y
ac cident</w>
pu tting</w>
gi ành</w>
be ha
b ão</w>
4 5</w>
ne t
n ê</w>
z u
se l</w>
bri dge</w>
t ốn</w>
part ner</w>
ng ers</w>
c óc</w>
n ư</w>
clu b</w>
ani mal</w>
a dam</w>
un t</w>
b ẩn</w>
we b</w>
pro per
lin es</w>
dani el</w>
sh a</w>
l ỡ</w>
2 2</w>
ar ms</w>
đ ụng</w>
gi ft</w>
v el
ti n
bea r</w>
an o</w>
j i
v ờ</w>
plea sure</w>
li ter
de an</w>
sho wed</w>
on ed</w>
p a</w>
j or
har v
de sign</w>
ro ll</w>
bir d</w>
m ạn</w>
e ps</w>
com man
tr ack</w>
weap on</w>
p is
li ều</w>
e t
des cri
s ting</w>
fe li
win dow</w>
progra m</w>
o il</w>
tri p</w>
si ze</w>
is ra
surpri se</w>
sou l</w>
gr ace</w>
. .
nh u
wor st</w>
cro w
sa fe
pro ve</w>
en cy</w>
de mo
kev in</w>
indi vi
ex tre
ci ent</w>
fuck in</w>
le dge</w>
tri al</w>
kh a</w>
ct ors</w>
cha mp
s ỹ</w>
in telli
fa ster</w>
indivi du
el le</w>
ra is
m ớ</w>
lo y
stu ck</w>
ã ª
wit ch</w>
tr ăng</w>
th ụ</w>
re n</w>
inter national</w>
comp ani
ex per
se qu
m in</w>
tr á</w>
a h
m ù</w>
b ô</w>
lu i</w>
v ation</w>
th á</w>
hel d</w>
v ỗ</w>
ne u
ind us
char les</w>
p ac
1 ,
n ấu</w>
langu age</w>
tr à</w>
wa y
re l</w>
cre ated</w>
m át</w>
b ếp</w>
pas sed</w>
b ought</w>
- tôi</w>
t ống</w>
m ess</w>
ad van
đ ếm</w>
dru gs</w>
vi sit</w>
o h.</w>
ke eping</w>
ph e
centr al</w>
th ou
oppor tun
ng ực</w>
đ ó.</w>
idi ot</w>
in tro
bro thers</w>
s cal
relation ship</w>
c âm</w>
v é</w>
ri es</w>
nh .</w>
su lt</w>
tr ạm</w>
ma tt</w>
tur ning</w>
destro y</w>
califor nia</w>
usu ally</w>
t ough</w>
ba se</w>
t ước</w>
ea s</w>
dou ble</w>
sh es</w>
memor y</w>
j as
d ũng</w>
ca stle</w>
sy n
human s</w>
fri en
fi re
lea der</w>
ju mp</w>
tech ni
ta ught</w>
s en</w>
ch ôn</w>
th ăng</w>
prin ce</w>
ene my</w>
li ệt</w>
g ương</w>
s er</w>
lo cked</w>
jus tice</w>
nei ther</w>
fin al</w>
ch ín</w>
elec tri
as h</w>
nu r
i sa
bel o
john ny</w>
imp ro
dou bt</w>
cha se</w>
ap poin
v u</w>
ớ p</w>
chur ch</w>
ann oun
ị nh</w>
ho ại</w>
cong r
s á</w>
ự u</w>
nu mbers</w>
ear lier</w>
appro a
si a</w>
ag ree</w>
2 50</w>
m óc</w>
fi f
f an</w>
es ome</w>
th ùng</w>
ro man
l ộn</w>
it e
bu ôn</w>
appreci ate</w>
mi ền</w>
fo ol</w>
di ck</w>
trav el</w>
sup er</w>
m ưu</w>
2 3</w>
o ds</w>
v á</w>
colon el</w>
an dy</w>
apar tment</w>
sa d</w>
mo ve
la b</w>
hung ry</w>
atu re</w>
te a</w>
le g</w>
batt le</w>
spe e
o ting</w>
n is</w>
kh áng</w>
afri ca</w>
n át</w>
allo wed</w>
po l
l u</w>
intro du
emer gen
cir cu
m ạo</w>
cou ra
christ mas</w>
ser ge
min is
consi der</w>
te en</w>
every where</w>
brea k
o ther
for t</w>
no ti
ớ n</w>
ư ơn</w>
tuy ết</w>
qu ỹ</w>
pl ant</w>
p in</w>
d ứt</w>
cu p</w>
gr and</w>
ki ck</w>
bi o
r ate</w>
mu m</w>
ma teri
am ong</w>
ad dress</w>
ã º
or ders</w>
th or
s àn</w>
mar ri
villa ge</w>
ca sh</w>
đ ộn</w>
tea cher</w>
str eng
scen e</w>
k el
gi áng</w>
tru ck</w>
abo ve</w>
l ồ</w>
figu red</w>
escap e</w>
d ạo</w>
ch ă</w>
v ốn</w>
r on</w>
clos ed</w>
cel ls</w>
wa ste</w>
gg ed</w>
dri ving</w>
am oun
l .
kil ls</w>
beha vi
b ă</w>
po is
r ose</w>
de p
on line</w>
idea s</w>
kh ô</w>
s ki
com b
intelli g
wri ting</w>
sco tt</w>
i us</w>
g ing</w>
bo dies</w>
x y</w>
prof es
m ềm</w>
ci de</w>
ụ y</w>
ori gin
h uyết</w>
re ma
ang ry</w>
wil ling</w>
on to</w>
v it
s crea
ma p</w>
thu r</w>
ph e</w>
l ượt</w>
eng ine
au to
neigh bor
congr atu
bun ch</w>
ap par
x óa</w>
o we</w>
m un
d âm</w>
ster n</w>
j ac
basi cally</w>
hon est</w>
ac cept</w>
v õ</w>
sum mer</w>
l on</w>
comple te</w>
tr ứng</w>
list ening</w>
en ded</w>
23 6</w>
ro l
ke ys</w>
hel ping</w>
a vo
p on
lo vely</w>
di sp
tho mas</w>
medi a</w>
favor ite</w>
st age</w>
m ồm</w>
g óp</w>
ti s</w>
ri ck</w>
l ơ</w>
chi ck
th èm</w>
na mes</w>
gla ss</w>
che mi
tr úng</w>
us h</w>
al ex
kh ã</w>
ac ting</w>
h ạng</w>
fu cker</w>
bull shit</w>
s che
op s</w>
o u</w>
il ing</w>
v ari
t úy</w>
app ear</w>
us i
t ám</w>
s ắt</w>
g ames</w>
gu i
li kes</w>
ri d</w>
ợ t</w>
y a
for got</w>
ci ti
f at</w>
d ẹp</w>
promi sed</w>
se par
s ons</w>
di a
th ổi</w>
sp or
girl friend</w>
dar ling</w>
s now</w>
d ư</w>
pati ents</w>
d ã</w>
0 s</w>
l át</w>
l li
hi ến</w>
ra ise</w>
fav or</w>
f it
imp res
he y.</w>
pre gn
oper ation</w>
ar rest</w>
oce an</w>
vi a</w>
si ght</w>
v ẩn</w>
deci de</w>
s ốt</w>
hel ped</w>
19 9
x ed</w>
h è</w>
dr unk</w>
dang er</w>
ar thur</w>
sh eri
ru le</w>
st af
immedi ately</w>
au di
th ổ</w>
sho ws</w>
ph ổ</w>
di ngs</w>
đi ệu</w>
survi ve</w>
twi ce</w>
tra ining</w>
gr an
be gan</w>
eri c</w>
sor ry.</w>
pres sure</w>
c i</w>
ba s
i i</w>
kh uy
fan ta
c ôn</w>
c is</w>
b ê</w>
c ans</w>
- -
opportun ity</w>
g ay</w>
bl ack
2 7</w>
emergen cy</w>
la ted</w>
sp ot</w>
ev en
w ine</w>
e .
j a</w>
gi ớ</w>
e ding</w>
y ers</w>
d un
mi es</w>
fo cus</w>
đ éo</w>
t ôi.</w>
no tice</w>
f ile</w>
ế ch</w>
n on
li fe
c ốc</w>
t ụ</w>
shi ps</w>
ng uy
li ền</w>
đ c</w>
k ín</w>
g ấu</w>
an ne</w>
1 .
de gre
bot tom</w>
vo lu
ướ t</w>
qu ê</w>
we b
sa ke</w>
hi ê</w>
bri an</w>
l ông</w>
wh er
tru ly</w>
inter est</w>
ch ở</w>
ren ce</w>
qu it</w>
g ác</w>
los ing</w>
de b
1 5
re ve
in ju
xo ay</w>
per for
bo o
te e</w>
p al</w>
n ỗ</w>
soci ety</w>
s na
pe te</w>
ú a</w>
ce .</w>
su ffer
par ts</w>
ngh ìn</w>
h ương</w>
after noon</w>
de ep
stea l</w>
i ra
conver sation</w>
ri s
star k</w>
kh át</w>
d ưỡng</w>
sy ste
pl ans</w>
li ghts</w>
kh ích</w>
ch ớ</w>
ca tions</w>
pi cked</w>
đi ển</w>
à .</w>
d or</w>
blo ody</w>
ti sh</w>
fl ying</w>
e h</w>
b or</w>
hea ds</w>
d are</w>
n es</w>
issu e</w>
cle an
b ell</w>
aw esome</w>
assho le</w>
ti al</w>
po p</w>
mor gan</w>
clos er</w>
ợ n</w>
car s</w>
đâ y.</w>
ra in</w>
bi es</w>
con fi
en ly</w>
vi c
phot ograp
ng ơi</w>
mo del</w>
of fer
inde ed</w>
hi ding</w>
near ly</w>
in stru
af gh
ter min
char ac
bi ện</w>
784 5</w>
r ying</w>
k ém</w>
ther n</w>
ỗ ng</w>
wal ter</w>
tex as</w>
to wards</w>
k at
al though</w>
go ds</w>
gg s</w>
n os
lear ning</w>
gh é</w>
sp ort</w>
tu ally</w>
sion al</w>
r t</w>
ng ọt</w>
khi êu</w>
dra w</w>
b ề</w>
l ưới</w>
ja il</w>
bri nging</w>
t ors</w>
ro ger</w>
it or</w>
ố m</w>
ro y</w>
pro ce
ori a</w>
be sides</w>
3 5</w>
tel ls</w>
k ne
y n</w>
1 000</w>
t ịch</w>
peop l</w>
necess ary</w>
ar ch
app la
h ang
h all</w>
a di
ordin ary</w>
gi ãn</w>
ệ ch</w>
bl es</w>
re cen
ki ên</w>
ex tra</w>
edu cation</w>
v ong</w>
relea se</w>
ma tic</w>
k ate</w>
ex ecu
na than</w>
k er
free dom</w>
univer sity</w>
p ack</w>
ma tch</w>
d ry</w>
can ada</w>
safe ty</w>
pre vi
s ữa</w>
hi l
appla use</w>
ju dge</w>
h ân</w>
gi án</w>
univer se</w>
fe der
s ơn</w>
su ất</w>
sp read</w>
ma in
cu te</w>
tion ed</w>
stu dent</w>
t ac
g ói</w>
ar a
cre d
comm and</w>
fa ith</w>
aw are</w>
str ess</w>
pl u
stor m</w>
ou gh
law yer</w>
t áo</w>
mar i
cis co</w>
chang es</w>
ch ìm</w>
thi ng.</w>
ta r</w>
su dd
l unch</w>
know ledge</w>
- you</w>
ẹ o</w>
sho oting</w>
ru p
r i</w>
li ked</w>
ci ous</w>
bla me</w>
respon sible</w>
respon si
at temp
fil m</w>
man .</w>
gro wing</w>
fac i
le ts</w>
re sul
boy friend</w>
bi ggest</w>
ar ds</w>
lo ad</w>
be c
h òn</w>
do c</w>
tra de</w>
goo gle</w>
bl ind</w>
th ấ</w>
marri age</w>
m s.</w>
ti êm</w>
that .</w>
lo ạt</w>
b ẫy</w>
jo ke</w>
h ă</w>
ex pen
en ding</w>
vi ễn</w>
sa r</w>
re f
r â</w>
pri son
ni fi
bo bby</w>
b áº</w>
đi ếm</w>
prin cess</w>
fac e
b ông</w>
poli tical</w>
k ệ</w>
comfor table</w>
v is</w>
p ost</w>
n ãy</w>
j o</w>
d .
ap art</w>
sle eping</w>
nh o</w>
g as
yo r</w>
sto le</w>
l ùng</w>
j i</w>
je cts</w>
fin ding</w>
ã ng</w>
u g
speci es</w>
hea ven</w>
ri se</w>
recen tly</w>
pot enti
nh u</w>
ta xi</w>
clear ly</w>
valu e</w>
v ous</w>
s pl
le gs</w>
emp ty</w>
ck les</w>
ac u
g ợi</w>
fran cis</w>
clo ck</w>
ter ms</w>
784 3</w>
2 5
ỗ n</w>
ti ght</w>
soldi ers</w>
v ững</w>
usu al</w>
trea tment</w>
r ắn</w>
in stitu
bro wn</w>
un fortun
ea si
sta ying</w>
wi de</w>
sol ve</w>
m ượn</w>
lo ves</w>
chang ing</w>
hun t</w>
auth ori
l ands</w>
m ét</w>
fe ed</w>
pre di
fer ence</w>
centu ry</w>
wee k
tr ali
emp lo
2 6</w>
tr ượt</w>
s cr
ho á</w>
hea vy</w>
congratu lations</w>
ú n</w>
reali zed</w>
pur pose</w>
moun tain</w>
ko re
tot al</w>
m ò</w>
hea d
chi ca
brea the</w>
đ ớn</w>
st ate
đ ạp</w>
cra p</w>
wil son</w>
p un
who o</w>
th ao</w>
serge ant</w>
c tu
re main</w>
amoun t</w>
per fe
m ỏ</w>
so ld</w>
so f
t ủ</w>
sheri ff</w>
as soci
ry an</w>
sudd enly</w>
dir ty</w>
tr òn</w>
ali ce</w>
đ ấm</w>
thre at
sy mp
de si
cre w</w>
wal ked</w>
sk y
pro gre
mb le</w>
gr ant</w>
famili es</w>
ba th
posi tive</w>
pic tures</w>
h ét</w>
ri ghts</w>
ava il
repor ted</w>
particu lar</w>
man u
ca mp</w>
z o</w>
res our
i ng
her o
dou g</w>
v ỏ</w>
nghi ện</w>
di v
a my</w>
- what</w>
í u</w>
hun dre
el ess</w>
ch er
a k</w>
res cu
drea ms</w>
vi cti
sho es</w>
indi a</w>
der ing</w>
ly n</w>
kno wing</w>
streng th</w>
kh án</w>
c ắn</w>
b ối</w>
terr ori
spir it</w>
mon ster</w>
k ness</w>
incredi ble</w>
su i
fu cked</w>
confir med</w>
b y
0 1</w>
y ep</w>
m â</w>
c ỏ</w>
ế t.</w>
de m
me ters</w>
m ạc</w>
19 8
blo ck</w>
b ồ</w>
who ever</w>
in si
pan ts</w>
isra el</w>
inno cent</w>
h uống</w>
tt on</w>
pat h</w>
ng ầm</w>
great est</w>
civi li
a th
war m</w>
tu ân</w>
t ư
ng à</w>
deser ve</w>
l or</w>
e th</w>
re .</w>
m ụ</w>
m ũ</w>
li p</w>
in ven
mi e</w>
in ve
col or</w>
b es</w>
ta ste</w>
fa iled</w>
cul ture</w>
t ảng</w>
mp ed</w>
j am
appar ently</w>
ph ối</w>
ngo ái</w>
fre sh</w>
con sci
tr ôi</w>
pa y
e qui
bal ls</w>
a ye</w>
fi red</w>
4 00</w>
ta ins</w>
surpri sed</w>
smo ke</w>
si mon</w>
staf f</w>
mo mmy</w>
h ỗn</w>
ser vi
dis covered</w>
we ight</w>
vic tim</w>
785 3</w>
tr on</w>
russi an</w>
r ange</w>
ke eps</w>
ỡ i</w>
fla sh</w>
lo cation</w>
2 8</w>
tr on
f ill</w>
co w</w>
tr ươ</w>
ng o</w>
ch ê</w>
sh i</w>
pa ir</w>
other wise</w>
cr y
cor por
a ver
ãº ng</w>
r or</w>
ta ng</w>
solu tion</w>
ne ga
ci ties</w>
spo ke</w>
gor don</w>
i mage</w>
ca s</w>
ve hi
pl us</w>
b ổ</w>
man i
le t
hundre ds</w>
writ ten</w>
w an</w>
th ỉnh</w>
su e</w>
n út</w>
h ank</w>
ch ers</w>
sig nal</w>
j un
ụ n</w>
bo x
22 6</w>
recogni ze</w>
n ose</w>
fa mous</w>
v ườn</w>
some how</w>
n y
ha dn</w>
wil d</w>
ho ping</w>
up .</w>
t àng</w>
s ợi</w>
m ì</w>
lea ves</w>
chica go</w>
vi ctor</w>
su ng</w>
po wers</w>
ne ck</w>
comman der</w>
us ion</w>
pap a</w>
believ ed</w>
laugh ing</w>
hi ếm</w>
h at</w>
a sh
cu ri
b in</w>
zer o</w>
ti cally</w>
bru ce</w>
re du
fo rest</w>
ca used</w>
e pi
tr ọn</w>
poin ts</w>
li eu
zz a</w>
possi bly</w>
ac coun
ten ant</w>
h ed</w>
expl os
ac ks</w>
y i</w>
x ạ</w>
pul led</w>
pri me</w>
high er</w>
de ca
tho ảng</w>
th ác</w>
n ă</w>
z ens</w>
t ê</w>
mul ti
mil lions</w>
mar ty</w>
mar ia</w>
ma r</w>
sm ith</w>
f u</w>
cor ner</w>
j ones</w>
i ces</w>
dire ctor</w>
be d
pla yed</w>
l ặp</w>
he aring</w>
re sult</w>
sour ce</w>
ni ght
drin king</w>
jo bs</w>
do cu
ch as
star ts</w>
si mil
re gre
expe cted</w>
ro y
reli gi
li ber
d ò</w>
wonder ing</w>
sa ving</w>
pat ter
l âm</w>
fin ch</w>
da mage</w>
chick en</w>
7 5</w>
th áo</w>
ta il</w>
mi a</w>
ac count</w>
tr ừng</w>
tel e
kin ds</w>
suspe ct</w>
hea ded</w>
b uy
m ồ</w>
ka tie</w>
i st</w>
do min
do gs</w>
c ers</w>
x ứ</w>
s s
plan ning</w>
f oun
de cl
gh ost</w>
co o
sa cri
cor ona
m bo
con su
con di
ter m</w>
kni fe</w>
tr af
ag ed</w>
lo wer</w>
ad mit</w>
g ãy</w>
cha ir</w>
ar med</w>
ti ngs</w>
st al
l ưỡi</w>
dri ver</w>
de mon
arri ved</w>
t ap
so li
aus trali
ph ổi</w>
ng ũ</w>
dra gon</w>
dis appe
a w</w>
sh or
pregn ant</w>
ot h</w>
m ộng</w>
f red</w>
c ột</w>
star s</w>
ri di
kẹ o</w>
k ong</w>
- không</w>
be er</w>
avail able</w>
dis tri
ph ú</w>
at ors</w>
vi s
bec ca</w>
physi cal</w>
brea king</w>
đ ĩa</w>
beau ty</w>
b ạch</w>
c ry</w>
sher lock</w>
du ty</w>
face book</w>
emb ar
tr àn</w>
fe male</w>
bir th</w>
ẫ m</w>
do ctors</w>
to à</w>
sco t
ho ng</w>
ed ward</w>
mat ters</w>
g ỡ</w>
victi ms</w>
pie ces</w>
lieu tenant</w>
h .
goo d.</w>
ch ãºng</w>
se xu
b ồi</w>
th áp</w>
syste ms</w>
see med</w>
con dition</w>
h ing</w>
w is
o i</w>
a chi
way ne</w>
sha me</w>
practi ce</w>
p age</w>
k em</w>
gre w</w>
us e
t es
su ýt</w>
l ây</w>
challe nge</w>
wor l
soldi er</w>
mean ing</w>
kno ck</w>
con stru
wit ness</w>
corre ct</w>
đu ôi</w>
ra y
ph áo</w>
l oss</w>
follo wed</w>
chú n</w>
ar re
tr ích</w>
cred it</w>
wal ls</w>
exc ell
ở m</w>
r it
hi ll</w>
fore ign</w>
me mbers</w>
guar ds</w>
gen e</w>
environ ment</w>
ev ent</w>
compani es</w>
an aly
ira q</w>
c ớm</w>
m ại</w>
suc cess
re ality</w>
m u</w>
hea ding</w>
b ệ</w>
sa v
re ver
tư ơi</w>
nh ằm</w>
medi cine</w>
ac cep
fin an
er ed</w>
d al
chu ỗi</w>
tuy ển</w>
he h</w>
ea l</w>
co m</w>
ca st</w>
pro of</w>
cá t</w>
nh ịp</w>
kho ảnh</w>
c ỗ</w>
qu est</w>
f our
nh ục</w>
bre ath</w>
wa t
lin col
ir on</w>
m ỏi</w>
fe eli
ti ệm</w>
ti ềm</w>
ol der</w>
b our
đ ền</w>
intellig ence</w>
guil ty</w>
a de
l ắ</w>
exi st</w>
b ụi</w>
af fe
ậ c</w>
un it</w>
tr uyện</w>
sacri fi
ng uyền</w>
m ãn</w>
r ẻ</w>
di ệu</w>
vi o
m anh</w>
car bon</w>
ng ly</w>
l ò</w>
k ins</w>
t ân</w>
stri ke</w>
gg le</w>
corona virus</w>
min ds</w>
cứ t</w>
vil le</w>
th ôi.</w>
stre ets</w>
nh ấn</w>
l ặn</w>
k an
crimin al</w>
ch ấn</w>
hi m.</w>
ãª n</w>
wa ter
her self</w>
gro w
ok ed</w>
lincol n</w>
kit chen</w>
cr ying</w>
bea ch</w>
re sta
h ận</w>
ck ets</w>
b ã</w>
ap er</w>
ti ves</w>
ng ắm</w>
hi ển</w>
bri tish</w>
thu ế</w>
resta ur
lar g
tr ơ</w>
the ory</w>
swee the
re al
s mile</w>
for ces</w>
đư ợ
recei ved</w>
easi er</w>
d est</w>
l ers</w>
ad vice</w>
n ướng</w>
m ồi</w>
gg y</w>
ea th</w>
con ven
vot e</w>
s sing</w>
cla i
ci an</w>
han nah</w>
ro of</w>
mother fucker</w>
c ạn</w>
x óm</w>
feeli ngs</w>
sur face</w>
g g</w>
bul let</w>
c ous
wea ther</w>
thre at</w>
sp ok
p .
wor l</w>
wal t</w>
on y</w>
mi cro
li m
dol lar</w>
ar gu
ỉ a</w>
thi ệp</w>
ph ái</w>
jes se</w>
d áng</w>
fol ks</w>
nh ã</w>
ner vous</w>
b ậc</w>
v el</w>
no where</w>
hã ng</w>
care er</w>
tr iều</w>
sche du
na z
li gh
bo w
tr ữ</w>
ti ne</w>
sk i</w>
scal e</w>
m ely</w>
ju li
bon d</w>
20 20</w>
y ard</w>
vu l
ẻ o</w>
v ội</w>
me ter</w>
be i
a du
v ãi</w>
ch .</w>
ad d</w>
đấ y.</w>
m ập</w>
gh s</w>
ger man</w>
c ương</w>
ra g
cu ô</w>
b ốc</w>
dro pped</w>
ba se
ri a</w>
net work</w>
jack son</w>
he o</w>
bo mb
even tually</w>
destro yed</w>
win ter</w>
in crea
hor ri
g os
dre ssed</w>
sa l</w>
excell ent</w>
se cure</w>
b one</w>
ani stan</w>
mo der
issu es</w>
de signed</w>
viol ence</w>
stru cture</w>
resul ts</w>
nu clear</w>
compli cated</w>
x ích</w>
n ạ</w>
he at</w>
do ors</w>
devi l</w>
bili ties</w>
h ôi</w>
ch ap
gra du
g ab
- anh</w>
sha w</w>
ser ved</w>
incre as
h èn</w>
di ag
ridi cul
c út</w>
an nie</w>
v ĩnh</w>
lau gh</w>
jas on</w>
conne cted</w>
pre p
ch ọc</w>
no w.</w>
men tion</w>
am en</w>
pl enty</w>
mur dered</w>
lea gue</w>
th ea
nega tive</w>
bu ông</w>
up stairs</w>
s ói</w>
ru ột</w>
r ab
je an</w>
h ê</w>
curren t</w>
k m</w>
em ma</w>
v ây</w>
liter ally</w>
air port</w>
vo i</w>
under stood</w>
on er</w>
d ở</w>
up set</w>
ad ed</w>
sig n
e z</w>
su s</w>
ph ấn</w>
se an</w>
fa il
vi ệ</w>
compe ti
4 8</w>
for ced</w>
co ok</w>
tu red</w>
ci l</w>
afgh anistan</w>
prepar ed</w>
bo l
chu ck</w>
cele br
bath room</w>
agre ed</w>
to a</w>
sho wing</w>
ac ted</w>
prep are</w>
z z</w>
sen ding</w>
r ũ</w>
pa ying</w>
mil ler</w>
fu l
for mer</w>
b b
ar eas</w>
m ến</w>
bu d
78 6
tre es</w>
gen e
euro pe</w>
embar ra
popu lation</w>
khu ẩn</w>
qu ận</w>
origin al</w>
l ược</w>
2 ,
fran k
gh ép</w>
eri a</w>
d ày</w>
cli mate</w>
mat the
de al
b ỏng</w>
b éo</w>
788 9</w>
ho an</w>
da r</w>
co le</w>
ch ea
w y
ch ăng</w>
bo ther</w>
th áº</w>
car ol
war ri
tr ục</w>
sm el
jap an
ac ts</w>
t ật</w>
qu ality</w>
m m.</w>
ber g</w>
v ứt</w>
sweethe art</w>
kh ùng</w>
in san
787 9</w>
apologi ze</w>
mi ch
faci li
fa ke</w>
state ment</w>
st yle</w>
no te</w>
in ci
tr ưng</w>
pi zza</w>
g ỗ</w>
wal ker</w>
ap o
t ape</w>
n as
k ra
ha w
co lo
be comes</w>
sa u
an cient</w>
wea k</w>
san ta</w>
gre e
provi de</w>
gro wn</w>
famili ar</w>
cla ssi
ben ef
tr ú</w>
pr ay</w>
jour ney</w>
ex plo
re pe
w re
sub ject</w>
re g
camp a
servi ces</w>
bo w</w>
noti ced</w>
a do
plac ed</w>
defen se</w>
ac tions</w>
tr e</w>
distri ct</w>
car ter</w>
behavi or</w>
nh ốt</w>
ngư ỡng</w>
har old</w>
am anda</w>
squ are</w>
li sa</w>
break fast</w>
al ty</w>
re volu
car ds</w>
2 9</w>
t ory</w>
ho me
econo mic</w>
ch á</w>
tra di
sui cide</w>
scienti sts</w>
ef fect</w>
ther ine</w>
ir an</w>
le on
c ựu</w>
1 6
gi ant</w>
e mail</w>
b oun
at lan
te eth</w>
king dom</w>
gra de</w>
exc ited</w>
đ à</w>
s no
fel low</w>
cla im</w>
tw enty</w>
re turned</w>
mp s</w>
cap able</w>
al ed</w>
su ggest</w>
stu r
kho ẻ</w>
h ít</w>
conne ction</w>
ca i</w>
ani c</w>
ang el</w>
ther e.</w>
ff er</w>
le tting</w>
do ws</w>
qu a
bel ong</w>
đ ồi</w>
titu de</w>
t ò</w>
se es</w>
reas ons</w>
mon y</w>
har der</w>
des p
bra ve</w>
repor ts</w>
la un
inve st
c ường</w>
lou is</w>
heal thy</w>
am i</w>
784 1</w>
tr ồng</w>
vin cent</w>
japan ese</w>
thi s.</w>
p ack
m ming</w>
g ates</w>
sm al
g ary</w>
de vice</w>
đ ẻ</w>
ter y</w>
r in
n ữ
hi ếp</w>
ger y</w>
bor der</w>
an der</w>
đ uối</w>
develop ed</w>
aw ful</w>
uni on</w>
investi gation</w>
z on</w>
jes si
gh ty</w>
fr ance</w>
ba bies</w>
ad mi
v ent</w>
move ment</w>
ridicul ous</w>
l ầu</w>
unfortun ately</w>
the a</w>
su gar</w>
s ụp</w>
me d
lu ke</w>
cư ợc</w>
coura ge</w>
ad di
sh oul
ph o</w>
n ụ</w>
ma yor</w>
ly n
d ra</w>
bro ad
aver age</w>
t ởm</w>
sen ti
quy ến</w>
lar ly</w>
bar ely</w>
2 .
s cu
je sty</w>
b óp</w>
wol f</w>
oc cu
ki ê</w>
đ ần</w>
ri ce</w>
gi ật</w>
fil led</w>
f ought</w>
bir ds</w>
the tic</w>
se tt
rais ed</w>
l ớ</w>
ho o</w>
b ớt</w>
d â</w>
cá º</w>
bu ýt</w>
simil ar</w>
mar cus</w>
logi cal</w>
f ea
concer ned</w>
ac tive</w>
đ ít</w>
fi ona</w>
f ate</w>
t .
str ea
responsi bility</w>
qu ét</w>
ou t.</w>
kh ảo</w>
hor ses</w>
at us</w>
an ts</w>
thro at</w>
fri day</w>
tion .</w>
sh ape</w>
pi er
li ly</w>
bos ton</w>
4 60</w>
recor ds</w>
nh ảm</w>
christi an</w>
chil d
đ ẳng</w>
swee tie</w>
th ạch</w>
e than</w>
d ness</w>
b ơ</w>
a de</w>
mon key</w>
g ởi</w>
bri lli
vi su
n i</w>
le .</w>
k u</w>
y an</w>
ty ler</w>
spee ch</w>
sa mu
sig nifi
op ened</w>
l ợn</w>
ci es</w>
ch ép</w>
assa s
str ate
me at</w>
materi al</w>
la ke</w>
l y.</w>
jor dan</w>
che cked</w>
ỡ n</w>
am a</w>
tr ầm</w>
peri od</w>
il a</w>
c used</w>
bu cks</w>
cl in
chu ckles</w>
assu me</w>
d in</w>
who m</w>
na r</w>
jer ry</w>
eng land</w>
viet na
as le
790 1</w>
sil y</w>
me mber</w>
li c</w>
discus s</w>
a tive</w>
we i
respon se</w>
re ss</w>
di gi
tr ướ</w>
to ms</w>
lu ng</w>
go ti
es sed</w>
af ford</w>
ren t</w>
offi cial</w>
i nh
en ter</w>
capit al</w>
y an
ci ting</w>
br o</w>
đ àm</w>
sen ator</w>
potenti al</w>
nh át</w>
cra sh</w>
app le</w>
to wer</w>
r ẽ</w>
hun ter</w>
d àn</w>
be g</w>
le gi
j ay</w>
chu ông</w>
la bor
to il
relea sed</w>
ar row</w>
ans wers</w>
ja co
r at</w>
psy cho
cl ay</w>
u gh</w>
z zy</w>
ve .</w>
prin ci
a unt</w>
ễ u</w>
wel ls</w>
week end</w>
temp er
he i
app ing</w>
kh ái</w>
ther e
lau rel</w>
prote ction</w>
bot tle</w>
đ ắn</w>
thi êu</w>
ta .</w>
mi rac
hang ing</w>
arre sted</w>
x ăng</w>
under wood</w>
s lu
re d
ne goti
k ênh</w>
develop ment</w>
bri ngs</w>
ca ke</w>
th ậ</w>
jap an</w>
cu ồng</w>
avo id</w>
an h.</w>
v ar
sil ver</w>
phi l</w>
di vision</w>
b in
m ă</w>
op er</w>
li ar</w>
e tte</w>
el la</w>
c oul
for ms</w>
1 4
wh it
re presen
pho to</w>
perfe ctly</w>
lin da</w>
hon est
v es
asle ep</w>
vietna mes
br an
r ào</w>
d âu</w>
w ly</w>
ro a
fac es</w>
di ver
b right</w>
ri l</w>
hol mes</w>
r ủi</w>
individu al</w>
ox y
mos tly</w>
ameri cans</w>
v áy</w>
under standing</w>
o li
wh is
t ally</w>
po ol</w>
ch ốt</w>
ma jesty</w>
de liver</w>
a ar
ưở i</w>
organi zation</w>
ea sily</w>
e go</w>
d d</w>
na ked</w>
camer on</w>
sur gery</w>
fa i
us .</w>
tr ói</w>
si m
di str
hi dden</w>
fre y</w>
de sig
t ent</w>
secre tary</w>
ri ngs</w>
p uni
de pres
đượ c.</w>
mo lly</w>
feder al</w>
bu ried</w>
9 9</w>
mo bi
c el</w>
al ter
ch op
sp ring</w>
in sur
con du
co lu
b ực</w>
t z</w>
r ă</w>
g ánh</w>
di g</w>
vietnames e</w>
v ầy</w>
n ộp</w>
gre en
angel es</w>
mer cy</w>
ki ệt</w>
experi en
dire ctly</w>
t esti
lo tte</w>
f os
ex tra
chi p</w>
bel ow</w>
at ory</w>
wh en
i ds</w>
gener ation</w>
des k</w>
s ánh</w>
inv ited</w>
hi ro</w>
í m</w>
w en
el ev
ch ose</w>
ch ợ</w>
cep tion</w>
- no</w>
e ta</w>
de on</w>
cra ft</w>
vict oria</w>
re mind</w>
re id</w>
mil k</w>
í c</w>
wo ods</w>
progre ss</w>
mur der
lo ose</w>
al o
th ắc</w>
lea ding</w>
gh en</w>
sand wi
m ali
gar cia</w>
g ối</w>
g ers</w>
en jo
eli za
at trac
ani a</w>
x á</w>
r ant</w>
out ta</w>
larg est</w>
l un
in ation</w>
ce ment</w>
wor kers</w>
scre w</w>
ma ss</w>
ki ệm</w>
b ùng</w>
3 0
pas se
nu ts</w>
high ly</w>
be e</w>
a e
đ ầ</w>
j in</w>
sel ling</w>
ph y</w>
thu r
l ack</w>
har m</w>
gi ỡn</w>
suc cess</w>
spl it</w>
pre fer</w>
carri e</w>
c ắm</w>
b ite</w>
honest ly</w>
đâ u.</w>
sun day</w>
pap ers</w>
kh ớp</w>
comp la
att acked</w>
rea ched</w>
re cent</w>
l ọc</w>
l ess
h in
1 ,000</w>
le d
ho ài</w>
bra z
đ ắt</w>
z one</w>
watch ed</w>
traf fic</w>
p y
ng ớ</w>
kh ói</w>
sur r
s kills</w>
p ment</w>
hur ts</w>
ho ward</w>
he li
restaur ant</w>
insan e</w>
gol den</w>
go al</w>
se i
rescu e</w>
rela ted</w>
fi nger</w>
su b</w>
scre en</w>
pre tend</w>
har dly</w>
arch ite
3 6</w>
te ddy</w>
produ ce</w>
or dered</w>
flo wers</w>
sur ve
s at</w>
gi ảng</w>
d ọc</w>
seri es</w>
secre ts</w>
ini ti
imp act</w>
mag gie</w>
h uyền</w>
g ang</w>
fl ori
du mb</w>
let ters</w>
19 6
tra ined</w>
st or</w>
nh ạy</w>
h. i.
contr ol
audi ence</w>
to ngu
shi rt</w>
mar ie</w>
ene mies</w>
eliza beth</w>
wa sh</w>
thou ghts</w>
repe at</w>
li s
kho ác</w>
extre mely</w>
b ự</w>
m ờ</w>
andre w</w>
fal ling</w>
cậ y</w>
te ch</w>
ph ere</w>
l ắp</w>
hi ể</w>
1 50</w>
th ối</w>
sto ck</w>
re fle
ol y
fanta stic</w>
brilli ant</w>
sup por
s wa
la u</w>
u r</w>
sa m
proper ty</w>
fi ngers</w>
b ones</w>
ans wer
ngư ng</w>
er t</w>
x é</w>
war ning</w>
p el
mư ơi</w>
ex pres
t ùng</w>
s ni
kid n
en .</w>
vol un
sha ke</w>
ro le</w>
op ening</w>
desp ite</w>
c ự</w>
b u</w>
th ước</w>
s ốn</w>
on e.</w>
for gotten</w>
deta ils</w>
6 00</w>
thi ểu</w>
lu cas</w>
ga z
co ck</w>
xu ân</w>
st ands</w>
rag nar</w>
mar ke
introdu ce</w>
ừ u</w>
tu be</w>
tri nh</w>
p d</w>
cous in</w>
si x
lu cy</w>
b ó</w>
ste ps</w>
speci fic</w>
qu in
ng æ</w>
g us
consi dered</w>
concer n</w>
ug ly</w>
tex t</w>
sa tis
hun ting</w>
cra w
coa st</w>
ca e
g ins</w>
expen sive</w>
profes sional</w>
nữ a.</w>
moder n</w>
fo x</w>
a a
- yeah</w>
s ốc</w>
ph ones</w>
ng ô</w>
dire ction</w>
chi ê</w>
at t</w>
ve gas</w>
op in
opin ion</w>
indus try</w>
des per
thu ần</w>
m ực</w>
h u</w>
enter pri
comple x</w>
ab lo</w>
sil ly</w>
pi ano</w>
m ây</w>
con sequ
citi zens</w>
al an</w>
tr ùm</w>
si r.</w>
er y</w>
angel a</w>
ch ang</w>
campa ign</w>
bl an
ng ọc</w>
mea su
khuy ến</w>
che ster</w>
ch os
đ ơ</w>
thre w</w>
ther ap
po t</w>
b l</w>
fo o
e y
div or
wa y.</w>
tr ật</w>
qu ỳ</w>
p tion</w>
li ft</w>
l ă</w>
l ance</w>
h ã</w>
d ược</w>
chi e</w>
cae sar</w>
b ang
in flu
ex citing</w>
ca u
ú m</w>
thr ough
ng ẩn</w>
ep h</w>
matthe w</w>
great er</w>
đ àng</w>
when ever</w>
poli cy</w>
off en
ne ur
ờ i.</w>
al pha</w>
resour ces</w>
pain ting</w>
di stance</w>
3 1</w>
là n</w>
th a
t ị</w>
sp an
sa telli
ng ửi</w>
deli ver
as se
t ỏa</w>
run s</w>
produ ct</w>
no ise</w>
manag er</w>
do in</w>
sho ts</w>
fail ure</w>
th ri
pa trick</w>
gu est</w>
fas hi
co ck
be coming</w>
ag e
roy al</w>
ng ư</w>
la m</w>
78 73</w>
wa it.</w>
sexu al</w>
b ọc</w>
approa ch</w>
nh æ</w>
lou d</w>
cli ent</w>
ad vi
x ì</w>
stro nger</w>
ng ập</w>
minis try</w>
da tion</w>
su ck</w>
trav el
te en
ste ph
previ ously</w>
dire ct</w>
be tra
23 4</w>
th ă</w>
indi an</w>
g ain</w>
fa il</w>
ali st</w>
al i</w>
z er</w>
s ke
po cket</w>
ò m</w>
te sts</w>
sto len</w>
sta yed</w>
ru ng</w>
ex act</w>
bur ning</w>
thi ếp</w>
tel evi
plan ts</w>
mo ves</w>
li ps</w>
li cen
ff s</w>
ap ril</w>
t áº</w>
ng ed</w>
sy l
regu lar</w>
hi v</w>
fore man</w>
fin e.</w>
dan cing</w>
at ta
an n</w>
h ằng</w>
c úi</w>
announ ced</w>
v ở</w>
n ắng</w>
in spe
est ab
es sing</w>
con ta
s. h.i.
re gar
gi áp</w>
v ang</w>
j on
inter view</w>
increa se</w>
ck e
r ộn</w>
pa ki
gi ang</w>
fal ls</w>
b ọ</w>
ab ly</w>
22 7</w>
el ds</w>
don ald</w>
b ound</w>
so oner</w>
re sear
mo tion</w>
l ỏng</w>
in vi
grow th</w>
bar bar
we al
than k
obvi ous</w>
f ying</w>
ex change</w>
ev el
bu ry</w>
wa ve</w>
slo wly</w>
sa tur
rema ins</w>
re p
hi red</w>
flori da</w>
el a</w>
e dge</w>
char lotte</w>
al li
st eri
sea son</w>
s wor
r ốt</w>
nghi ệ</w>
ev an</w>
de aling</w>
tac us</w>
oly mp
nur se</w>
la ws</w>
ỉ u</w>
trea ted</w>
scot land</w>
ho ãn</w>
circu m
ray mond</w>
i so
gi deon</w>
gi ê</w>
diag nos
at ch</w>
5 5</w>
ơ n.</w>
gar den</w>
a id</w>
toil et</w>
scho ols</w>
na tions</w>
mon t</w>
expe cting</w>
e. l.
actu al</w>
we stern</w>
con vin
th ắt</w>
rob in</w>
re ese</w>
no pe</w>
t ươ</w>
plan ned</w>
n ương</w>
n ơ</w>
g ọn</w>
ag ents</w>
a g</w>
h ệt</w>
g am
d ãy</w>
sing ing</w>
ro ws</w>
mi r</w>
gi c</w>
four th</w>
b ắp</w>
10 ,000</w>
spar tacus</w>
gra y
f on
brea thing</w>
se p
s.h.i. e.l.
je al
horri ble</w>
g ục</w>
er a</w>
d ale</w>
co very</w>
th ã</w>
e ggs</w>
1 7
pa int</w>
mi d</w>
khu ng</w>
cả ng</w>
vehi cle</w>
swi m</w>
cir cle</w>
ci als</w>
c ầ</w>
787 5</w>
ph er</w>
clar k</w>
can di
basi c</w>
g ạt</w>
emplo ye
c ậ</w>
yel low</w>
y in</w>
par don</w>
far m</w>
dis appoin
cu ộn</w>
condi tions</w>
2 000</w>
z es</w>
new sp
bus in
ê n.</w>
mobi le</w>
in .</w>
ạ i.</w>
p ounds</w>
nà o.</w>
m ổ</w>
infe ction</w>
br and</w>
qu ali
mo vi
man age</w>
l ờ</w>
atu res</w>
789 7</w>
th ỏ</w>
t our</w>
roo ms</w>
ob ject</w>
memor ies</w>
lo a</w>
l ật</w>
i or</w>
per mission</w>
al len</w>
ok er</w>
o lu
m us</w>
ki lo
kh ấu</w>
cy cle</w>
braz il</w>
la unch</w>
harv ey</w>
car ol</w>
b ến</w>
rou te</w>
re comm
ma ch</w>
k aren</w>
đ òn</w>
s witch</w>
particu larly</w>
mp ing</w>
fu el</w>
free ze</w>
econo my</w>
ck ey</w>
9 5</w>
ti cket</w>
see k</w>
gen ius</w>
ef fi
d le</w>
charac ter</w>
o o
it ation</w>
finan cial</w>
ưở n</w>
s ca
pro per</w>
l ót</w>
ci gar
bu t
authori ties</w>
ch ain</w>
b its</w>
imag es</w>
car es</w>
temp or
suffer ing</w>
success ful</w>
regre t</w>
m bia</w>
h ưu</w>
d r</w>
vi êm</w>
u e</w>
laugh s</w>
grou ps</w>
ch est</w>
bor ing</w>
b út</w>
al e
y l</w>
we d
vậ y.</w>
neighbor hood</w>
e ds</w>
wit nes
v ả</w>
sav age</w>
h âm</w>
gal a
đ áo</w>
lo g</w>
it ali
emp er
cư ỡng</w>
su rely</w>
nh ặt</w>
ng ẫu</w>
gu es</w>
deser t</w>
d ắt</w>
b .</w>
tr op
par ker</w>
ma u
di c
ch ẩn</w>
b áu</w>
ti mate</w>
tch es</w>
sp ac
se ttle</w>
reme mber
pi g</w>
nhu ận</w>
ar a</w>
tongu e</w>
ig n
go in</w>
feli city</w>
curren tly</w>
con ference</w>
car rying</w>
web site</w>
st ori
reve nge</w>
popu lar</w>
person ally</w>
ma tes</w>
cri sis</w>
t s
si ghs</w>
mb ling</w>
lea ds</w>
ci ans</w>
tra p</w>
ro man</w>
ph ô</w>
l ẻ</w>
kh úc</w>
3 7</w>
m ọc</w>
ju lie</w>
g ge
ta sk</w>
t ons</w>
r ập</w>
p ablo</w>
i tion</w>
ho pe
go d.</w>
fortun e</w>
b ren
mot e</w>
hu a</w>
des tiny</w>
crea ting</w>
tu s</w>
sen si
pr int</w>
parti ci
jour n
hand some</w>
afri can</w>
đi nh</w>
vict ory</w>
ph ả
aar on</w>
sn ea
ph ả</w>
li ght
is y</w>
ev ents</w>
de fe
dar kness</w>
wi re</w>
thur s
str ang
da y
d c</w>
c ore</w>
y lor</w>
mal col
ma tely</w>
i -</w>
gre g</w>
es h</w>
tur ing</w>
s care</w>
re ti
john son</w>
bo om</w>
supp ly</w>
nh àng</w>
il legal</w>
tr ộn</w>
te sted</w>
lin k</w>
e in
ag ency</w>
ze al
r âu</w>
offer ed</w>
lar ry</w>
dis h</w>
ni cho
men tioned</w>
ex er
ta m</w>
stan ces</w>
so ft</w>
offi cers</w>
mon day</w>
de mon</w>
coun cil</w>
c ant</w>
a si
les son</w>
guar an
f ru
con fli
che ese</w>
bur ned</w>
789 9</w>
ro b</w>
kh ẳng</w>
de mic</w>
br it
appe ars</w>
an o
ab and
y u</w>
4 2</w>
s cri
crow d</w>
ca therine</w>
y i
mu ội</w>
man ce</w>
l ượn</w>
di stur
bro ok
x ế</w>
ru pt</w>
oc cur
nh ơ</w>
lea ders</w>
frien d
ba gs</w>
acti vity</w>
wh ore</w>
w el</w>
s ướng</w>
re move</w>
malcol m</w>
ma sk</w>
des tru
degre es</w>
camer as</w>
insur ance</w>
in spi
f ts</w>
en i
ear th
c ô
australi a</w>
ma dam</w>
ch ăn</w>
bu ll</w>
l ăn</w>
bu tton</w>
att or
an i</w>
ac tor</w>
t wit
pois on</w>
pen ny</w>
demo cr
civi l</w>
bi ệ</w>
tr ương</w>
li br
ea se</w>
to ols</w>
sus an</w>
ses sion</w>
bra ins</w>
đ ợt</w>
wo o</w>
tion ing</w>
on i
m óng</w>
gh ten
d ùm</w>
b â</w>
sil ence</w>
human ity</w>
fil es</w>
den nis</w>
ar ily</w>
sp are</w>
ob je
jun e</w>
a to
re quest</w>
ologi cal</w>
mi cros
manag ed</w>
ma xi
l áº</w>
ki ngs</w>
jessi ca</w>
grand father</w>
đ áy</w>
tro ops</w>
regi on</w>
jos eph</w>
gover nor</w>
digi tal</w>
w et</w>
t ô
st able</w>
re fu
l la</w>
g õ</w>
eng ine</w>
ele ction</w>
televi sion</w>
ster y</w>
h ước</w>
fran cisco</w>
enti rely</w>
w is</w>
se xy</w>
nor thern</w>
mo d
j et</w>
eu r</w>
pi lot</w>
in cident</w>
ac i
ter ed</w>
stand ard</w>
coun ty</w>
buy ing</w>
ble eding</w>
đ ai</w>
t ần</w>
er al</w>
e sts</w>
mach ines</w>
chi êu</w>
v as
s man</w>
mo le
en e</w>
ye a</w>
so lar</w>
sel e
c ài</w>
mos cow</w>
kho ang</w>
inde pen
do .</w>
c ơm</w>
b ể</w>
advan tage</w>
đ ạc</w>
terr it
sha dow</w>
sacrifi ce</w>
r anh</w>
m à.</w>
co at</w>
chu i</w>
n el
g ment</w>
crea m</w>
coul son</w>
brea d</w>
x à</w>
tr ation</w>
separ ate</w>
ok .</w>
kh an</w>
conne ct</w>
79 13</w>
sig ns</w>
se ction</w>
hel ps</w>
c ốt</w>
c ống</w>
th ói</w>
se tting</w>
satur day</w>
lo an</w>
l én</w>
g ă</w>
e d.</w>
ch ff
b ồn</w>
5 0
te .</w>
sho wn</w>
s ma
p et</w>
mea sure</w>
3 3</w>
quar ter</w>
phi a</w>
nh ét</w>
a hh</w>
volun te
lev els</w>
incredi bly</w>
ha y
th à</w>
s and</w>
ma c</w>
ho li
extra ordinary</w>
en o
x ô</w>
ev ol
dis appear</w>
deb bie</w>
some thin</w>
n ôn</w>
mar ine</w>
frea k</w>
el li
di vi
shi ft</w>
pot ter</w>
c ụt</w>
bot s</w>
790 7</w>
wher ever</w>
identi ty</w>
you nger</w>
ti ed</w>
sandwi ch</w>
r ưỡi</w>
n in</w>
k yo</w>
a mp
tr ess</w>
kel ly</w>
im mun
al o</w>
te mple</w>
su ffer</w>
fre qu
fac tory</w>
cu ddy</w>
co oper</w>
9 11</w>
v án</w>
terrori st</w>
sto mach</w>
r are</w>
or a</w>
dep ends</w>
3 8</w>
plea se.</w>
4 7</w>
x í</w>
m ma</w>
li f</w>
disappe ared</w>
cho co
ter .</w>
da ily</w>
vir gin
use ful</w>
s wit
nhi ề</w>
emper or</w>
b ột</w>
scar y</w>
pas sing</w>
mes sa
fin ds</w>
cul tu
sy mbo
surve ill
g ậy</w>
che ers</w>
arti st</w>
u y</w>
u nh
r ang
o ba
n ốt</w>
mar ks</w>
k it</w>
er .</w>
e di
dy na
curi ous</w>
surveill ance</w>
8 00</w>
v ay</w>
sle pt</w>
r ough</w>
infe cted</w>
char ges</w>
cal cu
ban ks</w>
tu ệ</w>
fa ir
com mer
al y</w>
there fore</w>
sin s</w>
op pos
h àm</w>
a side</w>
79 11</w>
2 72</w>
mi ghty</w>
develop ing</w>
a se</w>
th âm</w>
scienti fic</w>
ri son</w>
mas sive</w>
k ur
g al</w>
fir m</w>
ev olu
cl ever</w>
bra vo</w>
v ú</w>
ti p</w>
oc ca
i re
chos en</w>
ber lin</w>
wi ngs</w>
shar p</w>
n it
n at
ex ten
bi ke</w>
through out</w>
spea ks</w>
ma gaz
o re
l ace</w>
kho á</w>
deci sions</w>
ate ful</w>
wor k
u d</w>
t all</w>
mon s</w>
k no</w>
da vis</w>
am bi
đ am</w>
z ar
p o</w>
lo a
h ố</w>
gra ve</w>
ef fort</w>
bur g</w>
x es</w>
produ ction</w>
pro ces
pla yer</w>
lan ni
ir is</w>
go tham</w>
effe ctive</w>
cer e
bri d
b ền</w>
w ound</w>
ter ry</w>
russi a</w>
pla stic</w>
mista kes</w>
la id</w>
k ri
jaco b</w>
visu al</w>
tr ào</w>
tch ing</w>
prin ts</w>
man ny</w>
down stairs</w>
tu al</w>
tra u
su gg
sa int</w>
o .
gi ặt</w>
.. ..
v ắng</w>
su sta
emo tional</w>
d ê</w>
ca p</w>
bu b
zeal and</w>
t esting</w>
pres ence</w>
nh ựa</w>
ko v</w>
bus h</w>
aw a</w>
an der
n in
m ally</w>
ir o</w>
exer ci
equi pment</w>
ma the
gh tly</w>
en c</w>
chff 1000</w>
an ti</w>
3 chff1000</w>
ton i
t les</w>
sp ell</w>
reas on
g ru
prote in</w>
p en</w>
me th
fi xed</w>
ch ô</w>
bu m</w>
belo ngs</w>
bat h</w>
proce du
lo ng
ger many</w>
g u</w>
da ting</w>
c ừu</w>
bel la</w>
attemp t</w>
at mos
a k
sur ren
al co
suc ce
prison er</w>
desi re</w>
d ại</w>
đ ố</w>
tri gger</w>
tal ks</w>
compu ters</w>
bi ết.</w>
va mp
symp toms</w>
span ish</w>
me tal</w>
dem and</w>
cli ff</w>
pla y
ni g
nh í</w>
ly dia</w>
in ch</w>
ck le</w>
t ông</w>
recei ve</w>
pre vent</w>
mi ster</w>
mi ser
val ley</w>
sh ine</w>
ser vation</w>
prote cting</w>
hel en</w>
cr ack</w>
ph un</w>
la h</w>
ck .</w>
c m</w>
auth ority</w>
6 5</w>
uni que</w>
th ấu</w>
la ting</w>
con tribu
al arm</w>
sh it
offi cials</w>
ng le</w>
high est</w>
g ent</w>
ca ge</w>
789 1</w>
đ ă</w>
ty pi
so o</w>
sho wer</w>
ste aling</w>
mus e
inv ite</w>
ho mel
g ps</w>
for th</w>
pi e</w>
ga ther
d ney</w>
c ấy</w>
acti vi
to a
screa ming</w>
ri p</w>
qu ấy</w>
pul ling</w>
o m
cap e</w>
bu dd
bro dy</w>
ế .</w>
your selves</w>
wy att</w>
scre wed</w>
movi es</w>
che cking</w>
pro vince</w>
ou l</w>
l ồng</w>
g an
fi cation</w>
dow n.</w>
devel op</w>
cri tical</w>
ch ơ</w>
th ụy</w>
t ence</w>
sh ap
ra in
mo s</w>
le wis</w>
fer red</w>
e c
nh e</w>
n ăn</w>
fan cy</w>
3 9</w>
wo od
quar ters</w>
qu es</w>
pp y</w>
mirac le</w>
l ac
care fully</w>
bea st</w>
su dden</w>
ri o</w>
ng ắt</w>
n ạp</w>
mil li
la tely</w>
l ư</w>
kh ao</w>
har d
contr act</w>
đ ỗ</w>
ow ner</w>
do zen</w>
ch âm</w>
wa ited</w>
tran spor
j on</w>
happ iness</w>
de pu
tou ched</w>
ri ding</w>
re becca</w>
pi cking</w>
lo aded</w>
appro pri
ver sion</w>
tu es
oxy gen</w>
mit ted</w>
le tt</w>
con vince</w>
n ina</w>
h en</w>
gray son</w>
chu n</w>
celebr ate</w>
bo o</w>
ad ver
4 3</w>
phi li
es co
commit tee</w>
cho ices</w>
chemi cal</w>
app li
warri or</w>
na tive</w>
man s</w>
lan ding</w>
ha tt
experi ment</w>
ava tar</w>
viol ent</w>
tr apped</w>
p unch</w>
k ỵ</w>
fl at</w>
alex ander</w>
st al</w>
m and
v ắc</w>
v ải</w>
sh ared</w>
sa ul</w>
o be
di men
ba u
ra tion</w>
ma th</w>
kho ái</w>
ju lia</w>
g us</w>
ein stein</w>
con centr
tru sted</w>
poli tics</w>
mos es</w>
lo u</w>
li qu
hou se
g li
flo wer</w>
đo ạt</w>
x ông</w>
tch er</w>
preci ous</w>
d less</w>
colle ct</w>
ru b
lon ely</w>
l ạp</w>
jeal ous</w>
it able</w>
ho ạn</w>
c ò</w>
bl on
ben jam
attor ney</w>
a wake</w>
2 ,000</w>
op tion</w>
hou ses</w>
competi tion</w>
ari an</w>
ti na</w>
no ah</w>
si d</w>
n ọ</w>
mea l</w>
d ịp</w>
d ust</w>
b ù</w>
ố p</w>
x íu</w>
wo ke</w>
os o
ngo a</w>
f ed</w>
d án</w>
mb o</w>
effe cts</w>
c ạo</w>
vi sit
ng ào</w>
mb a</w>
kore a</w>
kho ai</w>
ho ok</w>
đ ạ</w>
u ary</w>
mi cs</w>
lo ck
je ff</w>
c ủ</w>
t é</w>
spok en</w>
mon si
ma d
kh en</w>
fi shing</w>
f .</w>
degre e</w>
ti li
thurs day</w>
r ỗng</w>
pu re</w>
moun tains</w>
gi l
ex am
ce o</w>
ali zed</w>
a tio</w>
law rence</w>
grand mother</w>
do ck</w>
cos ts</w>
bel le</w>
app y</w>
5 ,000</w>
t ear</w>
sor s</w>
fas cin
ev acu
vac cine</w>
th ỉu</w>
tea ching</w>
sea l</w>
s ant</w>
r ỉ</w>
licen se</w>
gene tic</w>
di nh</w>
ad ded</w>
ac ade
v ịnh</w>
to ol</w>
ti me.</w>
re pu
muse um</w>
it aly</w>
b led</w>
ai ds</w>
un its</w>
t ầu</w>
mole cu
ha ck</w>
fe bru
ma ted</w>
m uối</w>
gentle man</w>
b ou
trac king</w>
the m.</w>
spor ts</w>
scienti st</w>
paki stan</w>
ge t
fac ts</w>
euro pe
ter ia</w>
t less</w>
speci fi
smal ler</w>
sh ment</w>
se th</w>
n ấm</w>
e gy
benjam in</w>
x ing</w>
v ey</w>
ta t
s ưu</w>
pla te</w>
fal se</w>
deta il</w>
x ài</w>
whis key</w>
v ere</w>
revolu tion</w>
m .
kar a</w>
hit ler</w>
febru ary</w>
der ek</w>
choco late</w>
be e
ad el
ỉ n</w>
ấ y.</w>
đ ứt</w>
techno logi
se ven
ri el</w>
bal ance</w>
đ ãi</w>
trans for
sof tw
o hh</w>
monsi eur</w>
jen ny</w>
i al</w>
b anh</w>
ag en
ab ra
x ưởng</w>
ta ylor</w>
sus pi
n ap
gla sses</w>
f ted</w>
un believ
sp in
sla ve</w>
nh ện</w>
jos h</w>
foot ball</w>
exi st
da wn</w>
ba c</w>
ste el</w>
pu ts</w>
mir ror</w>
f o</w>
di an</w>
consci ous</w>
ừ .</w>
ã nh</w>
whi sp
sp ending</w>
r ally</w>
mar sha
explos i
def end</w>
ch óc</w>
u al</w>
t ẩy</w>
survi ved</w>
satelli te</w>
pis s</w>
perfor mance</w>
pal ace</w>
l ăng</w>
ki rk</w>
k y
cur se</w>
ẹ t</w>
tion ally</w>
thi ef</w>
th ôn</w>
r ủa</w>
ok es</w>
l ầ</w>
heli cop
fun ction</w>
do o</w>
chea p</w>
ba be</w>
ad ven
3 .
k yle</w>
gui de</w>
expl or
x on</w>
sou thern</w>
signifi cant</w>
pro to
pri ze</w>
phả i.</w>
od d</w>
n ướ</w>
ju ly</w>
to ward</w>
thir ty</w>
sna ke</w>
mor al</w>
mar gar
f low</w>
cu tting</w>
commit ted</w>
cal s</w>
b ẻ</w>
r ates</w>
mi ami</w>
me l</w>
de .</w>
d ỗ</w>
cli mb</w>
bla de</w>
softw are</w>
quar anti
pros ecu
pop e</w>
hi .</w>
gi u</w>
dis tribu
char ged</w>
c .
al is
s mil
ri dge</w>
oper ate</w>
n ón</w>
gr un
feli x</w>
escap ed</w>
ap a
al ert</w>
sus pen
schedu le</w>
lu s</w>
le ster</w>
kin da</w>
kh am</w>
j .</w>
ho p</w>
dis ci
assi stant</w>
wor thy</w>
wat son</w>
ti le</w>
sa s</w>
ng ộ</w>
aband oned</w>
200 8</w>
win dows</w>
ly wood</w>
jer sey</w>
col lap
su gge
mo ments</w>
ken ne
in te
de pen
ni c</w>
n uốt</w>
jan uary</w>
h ắc</w>
fun da
chan ces</w>
ch an</w>
pal mer</w>
it es</w>
hi ền</w>
de termin
tr áng</w>
plea sed</w>
ni ghts</w>
k èm</w>
pres ents</w>
mr s</w>
me ta
lan e</w>
es ses</w>
d ates</w>
b ầy</w>
4 4</w>
phot os</w>
ma ker</w>
jen ni
rus h</w>
itali an</w>
fal len</w>
facili ty</w>
exper t</w>
buil dings</w>
alco ho
trea sure</w>
to kyo</w>
ta x</w>
pe tr
pe e</w>
gri d</w>
cre ature</w>
ag ing</w>
whe el</w>
produ cts</w>
3 4</w>
win ning</w>
ther .</w>
multi ple</w>
marsha l</w>
le on</w>
is .</w>
ha z
chuy ệ</w>
ad minis
tea chers</w>
sho ck</w>
ho mes</w>
di o</w>
au g
al u
ac ci
ri ley</w>
qu ãng</w>
hi ệ</w>
li ngs</w>
l is</w>
ho à</w>
drin ks</w>
tal i
respon d</w>
el len</w>
ch én</w>
thro wing</w>
sco field</w>
man hatt
l ấp</w>
ke ep
frien dly</w>
r us</w>
lu ân</w>
la tin</w>
chas ing</w>
c il
bu tt</w>
al ô</w>
str anger</w>
stea dy</w>
sm oking</w>
oper ating</w>
mis si
lo gan</w>
hu ỷ</w>
fit z</w>
w or</w>
st atus</w>
patter n</w>
on e
oba ma</w>
m áº</w>
l ắc</w>
hi p</w>
constru ction</w>
a x
ti ger</w>
p an</w>
mo od</w>
f ever</w>
cover ing</w>
co in</w>
tues day</w>
hy po
e m.</w>
da isy</w>
conf used</w>
đị n</w>
v ạn</w>
r al
murder er</w>
in va
con stan
ba star
b .
am p</w>
v ịt</w>
sen tence</w>
per spe
libr ary</w>
inclu de</w>
ga ther</w>
ch at
ca ve</w>
ash ley</w>
sp y</w>
sa f
pil ls</w>
s cor
pack age</w>
pa tri
ki cked</w>
h ori
fun d</w>
der man</w>
da mag
c and
valu able</w>
v on</w>
sc ore</w>
qu í</w>
ca fe</w>
786 9</w>
nas a</w>
jo ined</w>
j ah</w>
h ọng</w>
gr ateful</w>
di sor
chan nel</w>
a vi
zo om</w>
war n</w>
th ép</w>
temper ature</w>
ph ật</w>
p ound</w>
op ti
electri city</w>
í p</w>
thu ng</w>
sh in</w>
sen ior</w>
mon t
man n</w>
kne es</w>
gr ay</w>
fun eral</w>
con tro
bea ting</w>
u t</w>
ti vely</w>
th ầm</w>
t ank</w>
ni ck
nh ở</w>
gg ling</w>
cro wn</w>
bi d</w>
ba ge</w>
yo n</w>
sher man</w>
pre ten
oc to
nor mally</w>
manhatt an</w>
l ều</w>
hear ts</w>
dea ths</w>
d ated</w>
car ried</w>
ì nh.</w>
pre ven
defe at</w>
d ley</w>
bla h</w>
agre ement</w>
zo e</w>
th ắn</w>
sear ching</w>
r ảnh</w>
nà n</w>
nu t</w>
f i</w>
e thi
dro ve</w>
twit ter</w>
tr ườn</w>
t su
mar s</w>
spo ck</w>
some day</w>
sli de</w>
lar ger</w>
la d</w>
geor gia</w>
bri ef
ang le</w>
5 2</w>
us s</w>
mid night</w>
kh ơi</w>
hy dra</w>
con nor</w>
co ordin
be gins</w>
ju st
hi stori
fl esh</w>
fi ng
d son</w>
att acks</w>
19 7
tradi tional</w>
stop ping</w>
mi êu</w>
j an</w>
fac ing</w>
ch in</w>
win ner</w>
v áº</w>
si sters</w>
l ạm</w>
hi re</w>
d ập</w>
d uy
vi c</w>
to o
sensi tive</w>
b at</w>
y ê</w>
ven ue</w>
tr ash</w>
t ố
sol ved</w>
s úc</w>
ri e</w>
re y</w>
r u</w>
oppos ite</w>
n ate</w>
cultu ral</w>
ari es</w>
allo ws</w>
tion ary</w>
part ners</w>
n ó.</w>
m n</w>
e ye
ble w</w>
tr age
do or
champ ag
can dy</w>
ca s
bar ney</w>
b ong</w>
sil ent</w>
d ous</w>
co w
blo cks</w>
bei ngs</w>
ro ber
ra p</w>
pea ce
lau ra</w>
l ang
enti ne</w>
disea ses</w>
des ti
br on
bl in
v ạch</w>
v ance</w>
tri c</w>
gos h</w>
oun ding</w>
op e</w>
nh ấc</w>
ma ti
comp ro
v ặt</w>
strea m</w>
par king</w>
ngh ịch</w>
mis sion
l ột</w>
inju red</w>
in su
gu ests</w>
d ong</w>
- yes</w>
ụ m</w>
t ăm</w>
t os
stu dying</w>
ru in</w>
re mark
m uni
co ng</w>
ck ers</w>
b ra</w>
ma da
l ọ</w>
jack et</w>
harv ard</w>
da y.</w>
ch ằm</w>
ag gre
tea ms</w>
pin k</w>
ph áº</w>
ho tch</w>
europe an</w>
cri mes</w>
bed room</w>
ver i
t à</w>
on ing</w>
o z</w>
mus i
eng age</w>
ch at</w>
200 7</w>
un known</w>
shi eld</w>
ro cks</w>
re lev
psy chi
lu m</w>
k ai</w>
j ar
i á</w>
depu ty</w>
ca uses</w>
bel t</w>
ị a</w>
u k</w>
tun nel</w>
ra u</w>
po ver
hero es</w>
enterpri se</w>
cap ac
arri ve</w>
al bert</w>
ab du
t ể</w>
sa vi
s wea
s l
re action</w>
prote cted</w>
prof ile</w>
prison ers</w>
jus tin</w>
ign ore</w>
fi elds</w>
ex p
du mp</w>
coun ter</w>
coa ch</w>
chuy ền</w>
ca b</w>
back up</w>
achi ev
ser ving</w>
jac kie</w>
ha l</w>
de bt</w>
ben net</w>
war ned</w>
i ra</w>
h its</w>
di ego</w>
conven i
th ế.</w>
stru ck</w>
ses sed</w>
descri be</w>
đ è</w>
tr ace</w>
ti ễn</w>
t s.</w>
re ck
po ly
kh ôi</w>
es sa</w>
co inci
clar ke</w>
clai ms</w>
cap ture</w>
ư ơm</w>
th ườn</w>
my steri
l ũng</w>
g ì
d der</w>
champag ne</w>
ben eath</w>
đ an</w>
tr ân</w>
s ă</w>
nh ậ</w>
del ta</w>
chu ộc</w>
bl ess</w>
8 8</w>
ị n</w>
ti tle</w>
sou p</w>
pis sed</w>
mo ti
mich elle</w>
k man</w>
ju dy</w>
impres sive</w>
ch ục</w>
you tube</w>
poli ti
h s</w>
ge ous</w>
eng aged</w>
comfor t</w>
x ăm</w>
ta g</w>
star ling</w>
ru ined</w>
clos ing</w>
ali en</w>
nor man</w>
nan cy</w>
good ness</w>
788 5</w>
un usual</w>
r ar
nor th
mag ne
con vi
ac cur
đ ệch</w>
w inter
trans fer</w>
requi red</w>
re ward</w>
r in</w>
n ở</w>
n ét</w>
k g</w>
gar age</w>
fel las</w>
communi cation</w>
bu ồng</w>
back .</w>
b ơm</w>
v à
t ản</w>
scar lett</w>
sal t</w>
roman tic</w>
fle et</w>
convin ced</w>
co s</w>
ari o</w>
ad ap
9 7</w>
smel ls</w>
s.h.i.e.l. d.</w>
re mote</w>
nicho las</w>
hol lywood</w>
her .</w>
great .</w>
4 17</w>
offer ing</w>
n ell</w>
h on</w>
cor n</w>
bu ck</w>
đ ôn</w>
x ter</w>
us eless</w>
sp ot
my stery</w>
ja mie</w>
individu als</w>
ha i
ge e</w>
explos ion</w>
don na</w>
dan a</w>
cl usi
and ed</w>
adu l
la test</w>
ab bed</w>
v au
thi êng</w>
sh aring</w>
pla ys</w>
mi l</w>
hi c</w>
disa ster</w>
denti al</w>
deli very</w>
bor row</w>
đo an</w>
x uốn</w>
l ins</w>
ba dly</w>
t ứ</w>
spi der</w>
sa cre
me gan</w>
da mi
ch el
be tty</w>
ab by</w>
a z
pri de</w>
lim ited</w>
lea gues</w>
j ill</w>
ho b
fri ghten
estab li
bour ne</w>
a im</w>
sel y</w>
ra .</w>
l ự</w>
ca thy</w>
bon nie</w>
v ất</w>
ti ckets</w>
th ơm</w>
t uni
s can</w>
l f</w>
cre atures</w>
coun ting</w>
consequ ences</w>
kore an</w>
- it</w>
ra d</w>
circum stances</w>
c úp</w>
bu d</w>
bastar ds</w>
barbar a</w>
abo u</w>
đ ếch</w>
whe el
th ịnh</w>
pro mis
ph an
no thin</w>
messa ges</w>
m úa</w>
ex plan
deca des</w>
da ugh
ch ém</w>
an ce
5 7</w>
writ er</w>
ti ế</w>
sou th
s ét</w>
s wal
ro bots</w>
re min
re cru
possi bility</w>
non sense</w>
lo e</w>
life time</w>
hol ds</w>
e ter
ar do</w>
appropri ate</w>
3 ,
virgin ia</w>
ser v
ra ch</w>
mal a
li an</w>
l ệch</w>
h mm.</w>
deli cious</w>
cele bra
bu ff
benef it</w>
vul ner
hal l
elev ator</w>
ca ble</w>
v n
r áº</w>
m ĩ</w>
betra yed</w>
an xi
4 0
vac ation</w>
bra d</w>
ta te</w>
suffer ed</w>
st ated</w>
ng ừa</w>
lap top</w>
identi fy</w>
hã m</w>
confir m</w>
col or
acti v
tu m</w>
sh in
ru ồi</w>
pac i
l ại.</w>
fing er
desper ate</w>
d ụn</w>
on y
equ al</w>
chu ồn</w>
b ấm</w>
app ly</w>
a sia</w>
x ộn</w>
sa mmy</w>
pa u
ous ness</w>
chi ên</w>
ar ts</w>
785 5</w>
ster ed</w>
sh y</w>
po e
na vy</w>
k la
invest ment</w>
grand ma</w>
bar ri
an tly</w>
no ve
n an</w>
l ận</w>
investi ga
fo cused</w>
du ck</w>
comp as
a ang</w>
7 00</w>
star ing</w>
sal e</w>
g ang
fif ty</w>
e tt
d ịu</w>
custo mers</w>
comp ared</w>
an .</w>
gra m</w>
es a</w>
6 72</w>
unbeliev able</w>
survi v
r ớt</w>
pi es</w>
me ch
ex it</w>
ear l</w>
e ur
believ es</w>
base ment</w>
tr an</w>
shoul der</w>
arti cle</w>
tran sport</w>
sh er</w>
sacre d</w>
proto co
p at</w>
mu ôn</w>
jos hua</w>
dis cover</w>
co oking</w>
ac ces
4 6</w>
tra il</w>
soli d</w>
quy ê</w>
pre n
jer k</w>
vi si
ta tions</w>
s -</w>
er e
de ck</w>
champ ion</w>
brook lyn</w>
blo g</w>
9 6</w>
200 6</w>
pus sy</w>
ou se</w>
ob li
mus cle</w>
m àng</w>
l ỗ
e e</w>
deep ly</w>
tr ay</w>
samu el</w>
p se</w>
nh ãn</w>
lo ving</w>
lea der
he e</w>
&apos; t</w>
tr èo</w>
tal ent</w>
res tri
newsp aper</w>
kh ía</w>
gi o</w>
engine ering</w>
cư ỡi</w>
confli ct</w>
wed nes
tri ết</w>
steph en</w>
requi res</w>
rab bit</w>
p it</w>
nh áº</w>
mor s</w>
kh uyết</w>
bul lets</w>
ber ry</w>
trav eling</w>
go o</w>
d al</w>
se c</w>
pol lu
ma m
l ư
kh ử</w>
en tin</w>
duy ệt</w>
cl oud</w>
bi an</w>
al fred</w>
v â
ty pes</w>
h ẹp</w>
a ti
x ả</w>
surr ounded</w>
org an
li m</w>
invi sible</w>
gi ùm</w>
con stitu
ch ill</w>
bar nes</w>
b ướ
pri est</w>
l ùn</w>
g and
dis gus
deliver ed</w>
chu a</w>
as tron
ph ine</w>
ma ck</w>
ha ted</w>
fli es</w>
fashi on</w>
ea ten</w>
dra gon
bul ance</w>
am bulance</w>
th ự</w>
stu dies</w>
ph â</w>
gi ọt</w>
g .</w>
extre me</w>
conti n
ar ma
toa st</w>
s ẹo</w>
s ắm</w>
p anic</w>
mer ry</w>
ju mped</w>
cont ent</w>
ch ớp</w>
carol ine</w>
ra m
i cs</w>
ho lly</w>
differ ently</w>
cong res
ani e</w>
al g
t -</w>
requi re</w>
ran dom</w>
ou n</w>
o o</w>
no tes</w>
lo ver</w>
ki êu</w>
gh er</w>
figh ter</w>
d ơ</w>
confi dence</w>
ch ày</w>
ad vance</w>
đi ếu</w>
w ounded</w>
su cks</w>
s ờ</w>
s ọ</w>
oper ations</w>
mar shall</w>
immun e</w>
h l</w>
eli min
co 2</w>
cap tured</w>
an no
sor ts</w>
pover ty</w>
pe ngu
in don
fro zen</w>
continu es</w>
v ag
u ll</w>
to da</w>
t át</w>
some time</w>
sho pping</w>
ser va
re place</w>
p ity</w>
ob jects</w>
mou se</w>
mis sions</w>
lo v</w>
j u</w>
hand ed</w>
cr us
as sure</w>
ac compli
9 2</w>
wa ters</w>
ti vity</w>
thu ỷ</w>
mp tion</w>
mor tal</w>
es senti
d y.</w>
bu rea
bo ar
ac king</w>
4 9</w>
u hm</w>
ro pe</w>
high ness</w>
c it</w>
đ ính</w>
w are</w>
t ess</w>
survi val</w>
s or</w>
op tions</w>
in come</w>
el ena</w>
d âng</w>
cá n</w>
consi dering</w>
ca using</w>
bo lt</w>
4 1</w>
thr one</w>
tho ả</w>
khô ng
hor n</w>
ff in</w>
bas sa
assa ult</w>
willi am
weal th</w>
par ent</w>
od ds</w>
moun t</w>
mani pu
inven ted</w>
al vin</w>
surren der</w>
religi ous</w>
ra m</w>
r ạp</w>
jud gment</w>
impro ve</w>
en or
emp ire</w>
ear n</w>
de man
strate gy</w>
pus hing</w>
mit ch</w>
hal lo
flo rence</w>
bil ls</w>
atmos phere</w>
200 5</w>
worl d
tur ner</w>
son ny</w>
san dy</w>
nh ì</w>
k ung</w>
il la</w>
h ở</w>
h ó</w>
communi ties</w>
ch ron
6 1</w>
tou ri
sy lar</w>
sta ti
se ctor</w>
san ti
re moved</w>
mi x</w>
l ố</w>
jo int</w>
cli ents</w>
đ ậy</w>
publi shed</w>
phi êu</w>
perspe ctive</w>
l ướt</w>
kh ỏa</w>
hu mili
hope fully</w>
du ke</w>
cti vely</w>
ama zon</w>
ri f
lo ren
g len
en tr
dra wing</w>
col labor
a mb
stu died</w>
ri sh</w>
remember ed</w>
ref use</w>
previ ous</w>
mu ố</w>
m are</w>
exerci se</w>
ev a</w>
en na</w>
cros sed</w>
clean ing</w>
to y</w>
th àn</w>
st even</w>
s ally</w>
po le</w>
n t</w>
jer e
inspe ctor</w>
ex ha
disgus ting</w>
dir t</w>
d ội</w>
colle ction</w>
bur ger</w>
appoin tment</w>
sk ull</w>
pro je
pas sion</w>
lanni ster</w>
j uni
hi o</w>
e gg</w>
am bassa
1 st</w>
vari ous</w>
r and</w>
no ble</w>
leg end</w>
i van</w>
g ài</w>
ca sey</w>
u de</w>
s ườn</w>
redu ce</w>
pla t
pe ar
ox y</w>
k night</w>
increas ed</w>
fo ld</w>
dam ned</w>
a p</w>
se i</w>
per cy</w>
passe ngers</w>
par a
or i</w>
ma son</w>
l õi</w>
ge on</w>
en z
divor ce</w>
ch â</w>
c ay</w>
tch ed</w>
pus hed</w>
par ties</w>
manag ement</w>
fla g</w>
swi mming</w>
sk in
ron nie</w>
re turning</w>
n ảy</w>
la bor</w>
ke y
col leagues</w>
cke tt</w>
t ào</w>
ra i</w>
mer lyn</w>
m ẻ</w>
m òn</w>
in stance</w>
fif th</w>
ca ting</w>
8 5</w>
790 3</w>
10 0,000</w>
w i</w>
tu r</w>
thi ng
per man
occur red</w>
materi als</w>
han oi</w>
guaran tee</w>
fac ed</w>
de cent</w>
th less</w>
territ ory</w>
ta i
sep te
s que
s mur
of frey</w>
may a</w>
it i</w>
g ory</w>
threat ened</w>
r s</w>
pu zz
ng es</w>
magaz ine</w>
l ắ
in stin
g ạch</w>
es cor
crea tive</w>
ve ge
tor ture</w>
se ts</w>
re bel
ran ge
na sty</w>
ma sters</w>
m ỏng</w>
ju ice</w>
ha med</w>
ca bin</w>
wa ves</w>
wa sting</w>
v ẹn</w>
un like</w>
ta ges</w>
repu tation</w>
pro pos
in du
el li</w>
cla ss
ber y</w>
ba ker</w>
an ni
tw el
cha ir
accoun ts</w>
9 1</w>
x ách</w>
wan ting</w>
vo d
indon e
grand pa</w>
gl ory</w>
deep er</w>
a mi
79 15</w>
vo ices</w>
trac ks</w>
to ler
sno w
proper ly</w>
or le
mb s</w>
gi ư</w>
custo dy</w>
child hood</w>
c ents</w>
ag ai</w>
vie ws</w>
ve ment</w>
th .</w>
t us
sti f
sli p</w>
s --</w>
ro os
re v
khi ếu</w>
fi cial</w>
ex press</w>
ch loe</w>
- oh</w>
septe mber</w>
re present</w>
phil oso
m me</w>
k èn</w>
i ce
i b
g ớm</w>
deser ves</w>
com in</w>
bor is</w>
5 1</w>
pal esti
os car</w>
cả .</w>
co ward</w>
ba d
tr u</w>
te ars</w>
sour ces</w>
s ôi</w>
ne tt</w>
look .</w>
li ệ</w>
kan sas</w>
in se
g ươm</w>
cl ou
tr act</w>
spe c
physi cs</w>
phi e</w>
ph eno
nh ường</w>
n eath</w>
ki es</w>
influ ence</w>
h ạm</w>
affe cted</w>
s án</w>
r ưởi</w>
mon sters</w>
m t</w>
fra me</w>
der i
den y</w>
demon str
de ter
d it
1 2
uni form</w>
os au
lỗ i.</w>
i d
gh os
environ mental</w>
b last</w>
wednes day</w>
te x</w>
s mu
re fer
po w
khi nh</w>
ele ph
ar range
a bilities</w>
th ốn</w>
k ét</w>
enter ed</w>
ef for
democr acy</w>
car los</w>
ber n
aug ust</w>
đi ền</w>
đ ún</w>
th ươ</w>
stru ggle</w>
relation ships</w>
pri vi
men ted</w>
ma c
logi c</w>
h ost</w>
ch ứ
cel er
brea ks</w>
ali e</w>
adu lt</w>
wa ng</w>
sit es</w>
religi on</w>
i si
ho les</w>
hit ting</w>
dre w</w>
200 4</w>
- có</w>
ư ơ
tr y
ti t
susta in
stop s</w>
specifi cally</w>
so i</w>
sk ye</w>
sho ot
n ếm</w>
n âu</w>
k ẹp</w>
h ỏ</w>
fun c
dou b
di plo
ar gue</w>
á c.</w>
u x</w>
ta s
nh ị</w>
i g</w>
hea l</w>
exi sts</w>
compro mi
communi cate</w>
b úp</w>
0 4</w>
exist ence</w>
ex posed</w>
ex hi
engine er</w>
ear ned</w>
ch ã</w>
advan ced</w>
achi eve</w>
w en</w>
u nex
tter ed</w>
pa tr
lo cated</w>
dra g</w>
comb at</w>
ag ri
witnes ses</w>
wal ks</w>
under neath</w>
relev ant</w>
phil adel
o v</w>
nh ạt</w>
mar tha</w>
h ế</w>
go s</w>
tur key</w>
t ;</w>
su its</w>
si re</w>
ra dar</w>
qu ầy</w>
measu res</w>
bab y
ri gh</w>
re que
prof it</w>
mis s
loy al</w>
imag ination</w>
fir ing</w>
con cept</w>
bomb s</w>
bat tery</w>
ap ol
ử ng</w>
y ards</w>
wil d
v est</w>
thea ter</w>
stu dio</w>
o ke</w>
fel la</w>
chi nh</w>
atlan ta</w>
đấ ng</w>
wi pe</w>
war s</w>
tuy ê</w>
roa ds</w>
phe e
nove mber</w>
leader ship</w>
i ta</w>
ev es</w>
da w
can e</w>
al a</w>
wo w.</w>
su m</w>
ro ot</w>
reason able</w>
margar et</w>
in tend</w>
govern ments</w>
vod ka</w>
under ground</w>
sta ys</w>
re pea
qu it
ne il</w>
employe es</w>
c òng</w>
3 ,000</w>
russi ans</w>
r hy
pos t
organi za
neu ro
far mer</w>
essenti ally</w>
cong ress</w>
a do</w>
war rant</w>
ti ous</w>
sy ria</w>
p re</w>
kno cked</w>
ke .</w>
hy dro
gi â</w>
g ear</w>
descri bed</w>
ch ĩa</w>
a me
- l</w>
y ểm</w>
tu i</w>
ster o
rever se</w>
elec tron
den i
af fect</w>
đ ã
sky ler</w>
recor ded</w>
ni co
jenni fer</w>
g el
dis covery</w>
d ant</w>
citi zen</w>
ca ts</w>
blo od
alcoho l</w>
af fa
ơ i.</w>
us d</w>
st ones</w>
ne o</w>
hur ting</w>
b ịch</w>
under stand
tr ờ</w>
tho a</w>
of t</w>
ng ây</w>
mas sa
fru it</w>
fin n</w>
back ground</w>
s wing</w>
lu ngs</w>
li ck</w>
eri al</w>
cl ini
chi ck</w>
ac celer
sun der
squ ad</w>
pier re</w>
or ange</w>
lu ci
ho p
g ũi</w>
g lu
evolu tion</w>
el i</w>
ea stern</w>
colo mbia</w>
co ca
bri ck</w>
al es</w>
af fair</w>
ur ban</w>
thi ê</w>
t ti
sh ore</w>
s kill</w>
ng ậm</w>
ng e
ma id</w>
m at</w>
gol f</w>
foot age</w>
d p</w>
a mo
v òi</w>
us er</w>
thro wn</w>
st ac
ro cket</w>
proce ed</w>
maj ority</w>
los er</w>
leon ard</w>
f a</w>
de e</w>
capac ity</w>
a ve
đ ực</w>
wh el
u h
re public</w>
qui e
paci fic</w>
op ens</w>
la ser</w>
c in</w>
be cky</w>
ba sti
b ai</w>
wor ker</w>
s can
philadel phia</w>
ju ngle</w>
holi day</w>
demo cra
cor rup
ac qui
a be</w>
à h</w>
wi z
r èn</w>
kla us</w>
ju an</w>
hal f
g t;</w>
fle w</w>
exper ts</w>
def ea
deca de</w>
5 3</w>
& gt;</w>
technologi es</w>
stri p</w>
sho e</w>
ri an</w>
pen n
par adi
ig nor
gar bage</w>
e b</w>
ca te
sli ghtly</w>
pre d
per form</w>
destru ction</w>
champ i
c ăm</w>
supp lies</w>
sea ts</w>
se vere</w>
s áº</w>
remark able</w>
phi ến</w>
pain ful</w>
ok a</w>
o red</w>
g ai</w>
f ting</w>
dar cy</w>
comm it</w>
ca ssi
w ns</w>
p ted</w>
mp er</w>
mi ckey</w>
helicop ter</w>
gra ss</w>
disappoin ted</w>
chu ồng</w>
abra ham</w>
y ö
to xi
su re.</w>
so ạn</w>
se cu
mon it
cha mber</w>
c tic</w>
bu tter
784 7</w>
tố t.</w>
t ant</w>
ru de</w>
me tho
kno cking</w>
ge .</w>
de di
clai med</w>
vâ ng.</w>
tri cks</w>
nh ư
neighbor s</w>
er o
clear ed</w>
c one</w>
0 .000</w>
vir gin</w>
trea ting</w>
ri sing</w>
mar cel</w>
ma k</w>
land ed</w>
l ưỡng</w>
gu essing</w>
er in</w>
c ớ</w>
bu zz</w>
al .</w>
v ư</w>
ur i</w>
priv acy</w>
en try</w>
d ải</w>
concer ns</w>
clu e</w>
box es</w>
bi ological</w>
amp ;</w>
& amp;</w>
sti cs</w>
r .
foun dation</w>
experien ced</w>
ch èo</w>
bac teria</w>
ap p</w>
ta bles</w>
photograp h</w>
ph àn</w>
min ation</w>
h ụt</w>
base ball</w>
air craft</w>
8 4</w>
tra itor</w>
therap y</w>
s ảnh</w>
pri mary</w>
ner ve</w>
n els</w>
mur phy</w>
mu ra</w>
l ường</w>
k le</w>
g at
friend ship</w>
cont ex
ch y</w>
bar s</w>
a y
toge the</w>
so phie</w>
par aly
li on
kenne dy</w>
is ed</w>
inh er
dri ll</w>
com mission
b át</w>
é .</w>
yan ke
vi ch</w>
p us</w>
p sy</w>
ori ous</w>
lã m</w>
hea ther</w>
h án</w>
ox ford</w>
o xi
mo i</w>
mi gra
la bs</w>
l ánh</w>
kho e</w>
inter pre
coinci dence</w>
bi shop</w>
argu ment</w>
tu mor</w>
so m</w>
represen ta
r d</w>
phee bs</w>
pe tro
nh ánh</w>
ng ột</w>
missi ssi
im er</w>
car di
as hamed</w>
terrori sts</w>
sa tions</w>
ri cky</w>
qu an
night mare</w>
mar tial</w>
dia mond</w>
dea d
coun ter
c it
ambassa dor</w>
4 .
đ ệt</w>
x ám</w>
w ins</w>
ver a</w>
uy ê</w>
un sub</w>
tain ment</w>
p ages</w>
o le</w>
mb re
lắ m.</w>
light ning</w>
he a</w>
ha ir
di ê</w>
d re</w>
đ ờ</w>
twel ve</w>
tar ge
ni cky</w>
mada me</w>
kh éo</w>
indus trial</w>
hil ls</w>
fran kie</w>
effor ts</w>
an th
pa thetic</w>
p ate</w>
orle ans</w>
ma tically</w>
lo .</w>
for mu
ep y</w>
bla ke</w>
be gging</w>
activi ties</w>
accep ted</w>
5 4</w>
we e</w>
sh ou
neigh bor</w>
me ani
liber ty</w>
isa ac</w>
en ted</w>
disci pl
blo wn</w>
bi ble</w>
0 .
đ ầm</w>
u a</w>
procedu re</w>
loren zo</w>
e state</w>
demon s</w>
d ời</w>
ca it
bow l</w>
as s
ar chi
ad dition</w>
t our
si li
re ment</w>
ph ã</w>
ol lie</w>
octo ber</w>
natu rally</w>
e ze</w>
damag ed</w>
bel ly</w>
200 3</w>
william s</w>
u pper</w>
to oth</w>
shel ter</w>
screa m</w>
pi pe</w>
or .</w>
mi xed</w>
mi sunder
fe eding</w>
do mes
d á</w>
adminis tration</w>
abo ard</w>
8 3</w>
tis sue</w>
ten s</w>
ta p</w>
re ll</w>
offen se</w>
ng est</w>
na tion
main tain</w>
is lands</w>
cư ơ</w>
cho os
ẵ ng</w>
zo m
tu ổ</w>
t ta</w>
re call</w>
radi ation</w>
ra ven</w>
por t
n ó
m ph
l ậu</w>
je wel
hos tage</w>
gg les</w>
fa st
e y.</w>
e u</w>
car din
- that</w>
wi ki
vin ci</w>
van essa</w>
thu ậ</w>
sing ly</w>
scr atch</w>
mi st</w>
juni or</w>
h es
gr ac
e ce</w>
di ana</w>
cin dy</w>
be ars</w>
ab u</w>
6 4</w>
xu ô</w>
ng ất</w>
mu st
land s
je cted</w>
intere sts</w>
hu g</w>
enter ing</w>
de plo
de ce
d ồn</w>
bo red</w>
5 8</w>
20 10</w>
0 3</w>
sp en
no t.</w>
m ẩu</w>
in ti
immedi ate</w>
enor mous</w>
cha os</w>
ca su
b ùa</w>
79 19</w>
20 19</w>
ũ a</w>
ì u</w>
sta tions</w>
no vel</w>
logi st</w>
ha il</w>
d ele
cry stal</w>
char ity</w>
associ ated</w>
tou ching</w>
ti ề</w>
sp in</w>
s car</w>
ow ned</w>
nh ổ</w>
mod els</w>
import antly</w>
cu ba</w>
ca sin
é c</w>
plea sant</w>
pan demic</w>
lin d
kidn apped</w>
ho ped</w>
frank ly</w>
fos ter</w>
emo tions</w>
b ùn</w>
4 ,
we ed</w>
tempor ary</w>
mes sed</w>
hear t
cli mb
9 8</w>
ri c</w>
ow en</w>
mo thers</w>
hea ven
ha wai
ha tes</w>
d ary</w>
clin ic</w>
be ard</w>
a a</w>
w es
t ím</w>
stro ke</w>
sh it.</w>
p y</w>
le ment</w>
hã nh</w>
gor geous</w>
chair man</w>
ander son</w>
aggre s
a st
ver t</w>
tele phone</w>
sen ate</w>
rob bie</w>
re view</w>
n ồng</w>
gì .</w>
explan ation</w>
commer cial</w>
blo o
ơ c</w>
đ ĩ</w>
v ania</w>
n á</w>
m one</w>
gu t</w>
en sure</w>
dro w
20 16</w>
ừ n</w>
wa sted</w>
ven ess</w>
p i</w>
nghi ệt</w>
m c</w>
loy alty</w>
li mit</w>
j oking</w>
hou ston</w>
h ắ</w>
every day</w>
com ra
bri de</w>
whi p</w>
wa de</w>
va st</w>
ti an</w>
techni cally</w>
r ãi</w>
i er</w>
fr us
d ốc</w>
con rad</w>
c enti
bu g</w>
bo ats</w>
ớ i.</w>
y -</w>
tr unk</w>
qu i</w>
ex pos
c ẩu</w>
an ony
a wa
ỵ t</w>
ậ t.</w>
sy dney</w>
santi ago</w>
pla yers</w>
m med</w>
li ễu</w>
l ọt</w>
goo ds</w>
fl int</w>
figu res</w>
ba il
admi ral</w>
8 7</w>
- we</w>
tr ev
resi stance</w>
pow der</w>
pi c</w>
on i</w>
kne e</w>
je ez</w>
grap h</w>
comp os
ap h
wen dy</w>
thu ẫn</w>
the od
quy ên</w>
pheno men
pe dia</w>
o hio</w>
institu te</w>
gab riel</w>
f ab
ch 00
be have</w>
answer ed</w>
đ ô
y en</w>
wis dom</w>
tho ái</w>
t ôm</w>
st ors</w>
sou ls</w>
si de
pro jects</w>
pp i</w>
plan ets</w>
l ề</w>
k ry
k al
gi ll</w>
gen der</w>
cr ush</w>
bo ther
đ ái</w>
valu es</w>
si o</w>
sel fish</w>
sa il</w>
r ể</w>
ou ch</w>
ng ự</w>
necess arily</w>
n ề</w>
mor tal
indone sia</w>
gran ted</w>
cu ts</w>
appro xi
ab use</w>
1 20</w>
sim mons</w>
shi re</w>
sa mple</w>
ngư ời.</w>
mon itor</w>
mech ani
don nie</w>
confi dent</w>
ca ss</w>
wi shes</w>
v uốt</w>
stra i
sla ves</w>
rea ching</w>
organi zed</w>
n sa</w>
m ãnh</w>
fuck ers</w>
entr ance</w>
em bas
electri cal</w>
dri ven</w>
b óc</w>
b àng</w>
y land</w>
to o.</w>
sh ri
serv ant</w>
ph ra
mo di
manu fac
m ình.</w>
lyn n</w>
inte gr
ho mi
d man</w>
c table</w>
ar rang
z he
wea kness</w>
vulner able</w>
tran si
ref used</w>
quaranti ne</w>
or ing</w>
ire land</w>
impres sed</w>
i ng.</w>
har rison</w>
frank lin</w>
crimin als</w>
col lins</w>
blo wing</w>
ac cused</w>
sing ap
rol ling</w>
r ape</w>
qu entin</w>
o mar</w>
ken ya</w>
cait lin</w>
ba sis</w>
al ler
na i
mar it
li zzy</w>
gre y</w>
gi l</w>
gas ps</w>
crea tion</w>
ang els</w>
analy sis</w>
u t
sa sha</w>
qu ặc</w>
pla in</w>
offi cially</w>
in tel</w>
hon ey
es sen
ris ks</w>
nh ĩ</w>
mer lin</w>
le ng
infor med</w>
har ris</w>
hallo ween</w>
gr oss</w>
fi st</w>
fi a</w>
d ơi</w>
ch ốn</w>
ch ì</w>
23 7</w>
đ ẽ</w>
wo ody</w>
sla de</w>
s ập</w>
p m</w>
oper a</w>
n est</w>
ho ạ</w>
cre te</w>
cha mbers</w>
be ckett</w>
an ing</w>
ah em</w>
wa gon</w>
vis ited</w>
teen ag
ros ie</w>
resear chers</w>
plan es</w>
jer us
inno vation</w>
hospit als</w>
expla ined</w>
bri ef</w>
bit ches</w>
bio logy</w>
be half</w>
b ăn</w>
at titude</w>
as pi
- vâng</w>
đ ẹ</w>
x ơ</w>
tru m</w>
su peri
s âm</w>
qua ke</w>
qu ăng</w>
phe w</w>
oun d
micros oft</w>
inter nal</w>
docu ments</w>
affa irs</w>
us ers</w>
tr ắc</w>
su pre
produ ced</w>
pr o</w>
o logy</w>
ho pes</w>
hi d</w>
edu ca
cr o</w>
cho àng</w>
c ea
andre a</w>
a bi
ul ti
tr án</w>
sta ke</w>
s áo</w>
ri p
re ed</w>
re ci
jere my</w>
ho m</w>
ha s
h ìn</w>
far mers</w>
cru el</w>
ble .</w>
be side</w>
att end</w>
an cy</w>
5 6</w>
- em</w>
đư ờn</w>
yo ko</w>
seri al</w>
s òng</w>
ou g</w>
mysteri ous</w>
li u</w>
je ff
inten ded</w>
i p</w>
electri c</w>
b ế</w>
y ton</w>
vi et</w>
t ọa</w>
provi ded</w>
m ặ</w>
intellig ent</w>
f ence</w>
bo ots</w>
adul ts</w>
ur gent</w>
trav is</w>
te dly</w>
t ments</w>
s p</w>
r ỗi</w>
laun ched</w>
in ev
her cu
he ctor</w>
f are</w>
embas sy</w>
dra wn</w>
devi ces</w>
so ngs</w>
n ity</w>
m ộc</w>
kil lers</w>
en for
control led</w>
c tio</w>
yo o</w>
ver on
u ne
so il</w>
ph ase</w>
p od</w>
oppor tuni
mb led</w>
l l
j ing</w>
gener ations</w>
f at
d ai</w>
centu ries</w>
as sign
ali sts</w>
w ounds</w>
v ươn</w>
t è</w>
sa fer</w>
ph er
na p</w>
miser able</w>
h ers</w>
bro w
vu ông</w>
v ần</w>
typi cal</w>
stif ler</w>
ra i
mi stress</w>
l áo</w>
in f
hel p
gu it
dra matic</w>
col ors</w>
ab or
đ ới</w>
x ưng</w>
wol ves</w>
str y</w>
r and
n êu</w>
lo ws</w>
ki ềm</w>
gu ts</w>
gen es</w>
depres sion</w>
cá p</w>
char ming</w>
be gun</w>
b ỗng</w>
20 1</w>
á .</w>
w u
tr êu</w>
thi ck</w>
ri chie</w>
ph ơi</w>
ha v</w>
consci ousness</w>
con sul
bur gh</w>
br ush</w>
war ming</w>
t one</w>
shar k</w>
sh ell</w>
sea s</w>
pat ch</w>
pa d</w>
out break</w>
os is</w>
or able</w>
ng ợi</w>
g â</w>
g dp</w>
c ùn</w>
brea st</w>
benef its</w>
ar ance</w>
20 12</w>
ú ng.</w>
tr il
tho mp
th ính</w>
th m</w>
succe ed</w>
some place</w>
sett led</w>
ran dy</w>
qu ậy</w>
puni shment</w>
o me
near by</w>
kar l</w>
gla s</w>
gal la
fi res</w>
eri k</w>
0 2</w>
- cô</w>
veron ica</w>
syl vania</w>
saf ely</w>
s w
rob bery</w>
re u
protoco l</w>
mu d</w>
ma i
is es</w>
expla ins</w>
ch ổ</w>
ch ay</w>
c ôi</w>
bướ m</w>
assas sin
vau lt</w>
techni cal</w>
stu ff
ju les</w>
ja i
identi fied</w>
gra vity</w>
fascin ating</w>
del an
contex t</w>
bi c</w>
b ust</w>
ze us</w>
t ú</w>
r ách</w>
pla c</w>
phili pp
pap er
lis sa</w>
l m</w>
k or
gi ô</w>
f fe
down town</w>
di gging</w>
cri ti
an ces</w>
a mber</w>
200 9</w>
ạ n.</w>
x us</w>
th al</w>
practi cally</w>
ni ngs</w>
mar co</w>
list ened</w>
l ẩn</w>
kit ty</w>
ke v</w>
jus ti
ha mp
dro pping</w>
de pos
conf es
con qu
ch app
bud get</w>
ba dge</w>
attrac tive</w>
5 0,000</w>
un able</w>
trage dy</w>
s ary</w>
r ực</w>
r ats</w>
pri ces</w>
ni gh</w>
l ân</w>
ke ith</w>
h ỡi</w>
fai ry</w>
consi der
compas sion</w>
be an</w>
5 9</w>
we st
st es</w>
os ity</w>
mississi ppi</w>
ma ster
lo o</w>
lau ren</w>
instru ctions</w>
in ner</w>
imp er
g ìn</w>
fli p</w>
drea ming</w>
defea ted</w>
b ịa</w>
b ách</w>
adven ture</w>
you th</w>
wal d</w>
se basti
ru th</w>
indepen dent</w>
f its</w>
com ment</w>
b úa</w>
assi stance</w>
ack er</w>
ac cu
y ang</w>
val entine</w>
ra il
per su
pe pper</w>
meani ng
le i
ha cker</w>
aus tin</w>
as ks</w>
a dn</w>
wor e</w>
tra dition</w>
suspi cious</w>
repor ter</w>
nghi ền</w>
li a
law yers</w>
khu ất</w>
kh âu</w>
is tic</w>
fl u</w>
essen tial</w>
embarra ssing</w>
du tch</w>
cou ch</w>
col li
can cel
bern ard</w>
b and
archite cture</w>
alg ori
trev or</w>
s ley</w>
resi dents</w>
re minds</w>
p acked</w>
me o</w>
kh e</w>
h æ</w>
h ans</w>
fi ghts</w>
ben der</w>
apologi es</w>
20 ,000</w>
vamp ire</w>
to s</w>
tar gets</w>
sel s</w>
re y
patter ns</w>
h ợ</w>
g ăng</w>
determin ed</w>
clos et</w>
classi c</w>
cere mony</w>
c õi</w>
box ing</w>
đ ả</w>
tru mp</w>
person nel</w>
n ươ</w>
n é</w>
mil ton</w>
mathe ma
ght ful</w>
g á</w>
enjo ying</w>
di stin
cigar ette</w>
ch ước</w>
b end</w>
an nu
al ism</w>
al em</w>
ab l</w>
1 3
w it</w>
vio let</w>
vac cin
unex pe
tri be</w>
singap ore</w>
shor tly</w>
s úp</w>
men tally</w>
ki ế</w>
h â</w>
h r
daugh ters</w>
al l
- chúng</w>
y ear
sp ain</w>
s ương</w>
re publi
inter ven
bac ks</w>
aw k
a h.</w>
yo r
yel ling</w>
terr or</w>
t úng</w>
swe at</w>
sus hi</w>
ous y</w>
nig eria</w>
mon ro
ki ra</w>
h ông</w>
gener ous</w>
expl ore</w>
domes tic</w>
d os
cla sses</w>
ca tal
be es</w>
79 21</w>
y ce</w>
t ưởn</w>
syn c</w>
su ỵt</w>
so l</w>
she ep</w>
ri nging</w>
rac ing</w>
ler y</w>
inspi red</w>
corpor ate</w>
b ưu</w>
x ỉn</w>
th ể
sti cks</w>
sco tty</w>
rif le</w>
pres cri
p ag
na vi
m âu</w>
la tor</w>
jerus alem</w>
je ffer
d ặn</w>
bur rows</w>
b ấy</w>
wa l</w>
v ụn</w>
rou tine</w>
re plac
pi per</w>
mur ders</w>
mo on
fe tch</w>
ea u</w>
din osau
di et</w>
beli ef</w>
ari a</w>
w ong</w>
o is</w>
el der</w>
docu ment</w>
disp os
d ory</w>
constan tly</w>
any time</w>
acade my</w>
- he</w>
wal let</w>
th ọ</w>
tan e
t ạng</w>
sy ste</w>
me tap
me ta</w>
magi cal</w>
j offrey</w>
gre ek</w>
go at</w>
dar yl</w>
alter native</w>
xu i</w>
th us</w>
tal e</w>
t led</w>
sal es</w>
pi gs</w>
n n</w>
continu ed</w>
co al</w>
the on</w>
t ẩu</w>
rev eal</w>
part ner
mi chi
liqu id</w>
inter ro
hercu les</w>
ger mans</w>
fa thers</w>
d ang</w>
co pe</w>
challe nges</w>
can adi
br yan</w>
bau er</w>
spok es
solu tions</w>
pre su
pat ty</w>
mar ked</w>
l led</w>
kilo meters</w>
in fin
ell is</w>
do s</w>
do ll</w>
budd ha</w>
blu e
so da</w>
r ã</w>
r at
ng ạo</w>
mot or</w>
kry p
esti mated</w>
elli ot</w>
effi cient</w>
cos tu
communi cations</w>
casin o</w>
appe ared</w>
ẻ m</w>
yö u</w>
vi á</w>
st ag
sig nature</w>
meth od</w>
me chan
ken ny</w>
imag ined</w>
high way</w>
gi es</w>
for ty</w>
fa c</w>
escor t</w>
en coura
e th
e house</w>
d uyên</w>
coun sel
chu y</w>
che ck
busin esses</w>
bil lions</w>
assu ming</w>
x .</w>
w rap</w>
smo oth</w>
sea ttle</w>
ra ge</w>
ph arma
ki ssed</w>
g el</w>
e v</w>
con spir
bea ten</w>
a thy</w>
3 d</w>
winter fell</w>
wi ves</w>
na k</w>
gent le</w>
gener ate</w>
for med</w>
fil thy</w>
d ot
coca ine</w>
christi ne</w>
bur den</w>
arti ficial</w>
ô ng.</w>
world wide</w>
t ủy</w>
sen ten
s cru
pho eni
m ấ</w>
ham mer</w>
h ổng</w>
gh ted</w>
fair ly</w>
de ar
capit ol</w>
ca tes</w>
bri gh
ber nie</w>
australi an</w>
un comfortable</w>
tre men
suspen ded</w>
sa il
recor ding</w>
pain ted</w>
p oker</w>
o live</w>
mp y</w>
miss ile</w>
ki ng.</w>
har a</w>
guar dian</w>
ele ments</w>
del a
clean ed</w>
c ặn</w>
c úm</w>
burea u</w>
ance stors</w>
a ka</w>
vehi cles</w>
tro y</w>
sha k
lo cks</w>
li z</w>
lea k</w>
keep er</w>
in fra
ho o
deter mine</w>
conne ctions</w>
bil it</w>
788 3</w>
u ps</w>
si mu
n ứt</w>
ma h
m ắ</w>
infor ma
guy s.</w>
funda mental</w>
e ing</w>
co me
bur ns</w>
bl essed</w>
th ủng</w>
t acti
strang ers</w>
r ors</w>
pro pose</w>
preci sely</w>
ph ế</w>
ow ns</w>
inter rup
i nhu
hero in</w>
ea gle</w>
di ve</w>
dam on</w>
chi ps</w>
b ẩm</w>
- hey</w>
ẽ o</w>
wi ck</w>
tri ể</w>
ti ming</w>
terr or
q i</w>
pi ed</w>
ngo à</w>
mexi can</w>
marke ts</w>
hawai i</w>
gg ers</w>
galla gher</w>
figh ters</w>
expe c
ea ble</w>
deal er</w>
dami en</w>
coun ts</w>
ar no
õ ng</w>
tu a</w>
to dd</w>
thi a</w>
n áo</w>
less ons</w>
fac tor</w>
egy pt</w>
di um</w>
de tro
c ử
brit ain</w>
ắ n.</w>
tô i
sp it</w>
rais ing</w>
po l</w>
mes sing</w>
hi ếu</w>
fro do</w>
frea king</w>
fin est</w>
discus sion</w>
candi date</w>
approa ching</w>
quot e</w>
preten ding</w>
phi lip</w>
or al</w>
k ru
jo ining</w>
h ái</w>
g ant</w>
ff ff</w>
ef s</w>
cu a</w>
co ol
asi an</w>
ali ze</w>
worl ds</w>
win d
tr ate</w>
to es</w>
threat ening</w>
th íc</w>
sa i
ro t</w>
ro i</w>
qu ố</w>
pati ence</w>
over whel
no thing.</w>
nh ồi</w>
khi êm</w>
k et</w>
en du
disa gre
custo mer</w>
c tures</w>
bu ồm</w>
6 .
wiki pedia</w>
under stan</w>
trau ma</w>
symbo l</w>
ste pped</w>
nhiễ u</w>
n ít</w>
introdu ced</w>
gr ounds</w>
democra tic</w>
dece mber</w>
comb ination</w>
cho p</w>
ca sp
ar ro
ap ers</w>
ans a</w>
an don</w>
vi gi
sti mu
schedu led</w>
oxi de</w>
nar ra
n ai</w>
leg ally</w>
infor m</w>
hu dson</w>
guil t</w>
fal cone</w>
al bum</w>
ợ m</w>
đ ắm</w>
x ôi</w>
r áng</w>
p ile</w>
ki ta</w>
ge eta</w>
dou glas</w>
b ôi</w>
ướ n</w>
xu ôi</w>
suspe cts</w>
stre tch</w>
r ò</w>
pre ce
n ến</w>
j .
investi g
head quarters</w>
for gi
di gn
cros sing</w>
consi st
ar k</w>
after wards</w>
y os
y ay</w>
war den</w>
spir its</w>
spir it
spen cer</w>
progra ms</w>
ni c
ng à
lo w
l íu</w>
dri ves</w>
dr o</w>
classi fied</w>
ệ t.</w>
ta e</w>
smar ter</w>
olymp ic</w>
m our</w>
jour nal</w>
experi ences</w>
eri es</w>
dal las</w>
cow boy</w>
ẻ n</w>
ves sel</w>
ulti mately</w>
sa ck</w>
s ounded</w>
re t
nh ạo</w>
kri st
inv itation</w>
h ơn.</w>
ghos ts</w>
fran ken
cri xus</w>
cre ates</w>
com a</w>
ble ed</w>
5 .
ấ t.</w>
x en</w>
visi ting</w>
sam ples</w>
privi le
posi tions</w>
plat form</w>
mean time</w>
m mer</w>
j ani
ga il</w>
f in</w>
col league</w>
clos ely</w>
w ally</w>
stu b
nat alie</w>
m ạ</w>
get tin</w>
de ton
belo ved</w>
b ịt</w>
b ỉ</w>
answer ing</w>
acci den
y s
resi st</w>
nguy ệt</w>
mas ks</w>
k ông</w>
ex tin
esti mate</w>
cl y
c òi</w>
ab andon</w>
a war
24 2</w>
trans ferred</w>
st y
sh ane</w>
sebasti an</w>
pas sport</w>
nh an</w>
ng -</w>
n ộ</w>
jeffer son</w>
j ona
hil l
hea vi
haw k</w>
guit ar</w>
gradu ate</w>
concentr ate</w>
car ed</w>
arno ld</w>
anth ony</w>
ệ n.</w>
visit ors</w>
tho áng</w>
tar a</w>
star ving</w>
s chu
ra tional</w>
pren ti
per si
ng ụy</w>
in k</w>
eri e</w>
d ỡ</w>
d ưa</w>
ch t</w>
cer ti
car lo</w>
bar re
a to</w>
20 11</w>
pri ority</w>
pre mi
mer ely</w>
l ls</w>
insi st</w>
f esti
f en
ev alu
cor p</w>
brea ch</w>
b ậy</w>
and re</w>
đ úng.</w>
z ona</w>
v ani
str ing</w>
st atu
s ừng</w>
s ê</w>
pul se</w>
pri or</w>
no od
n ấp</w>
inter rupt</w>
idi ots</w>
hea da
gy m</w>
g .
delan ey</w>
decl ared</w>
da ta
cli ck</w>
car t</w>
ara b</w>
al zhe
again .</w>
v ẫy</w>
to by</w>
terri bly</w>
ten nis</w>
smil ing</w>
scho ol
rea ds</w>
op pon
monro e</w>
mi ck</w>
lu cin
kh ă</w>
isa belle</w>
is ti
ho ành</w>
comp ar
clou ds</w>
am in</w>
v .
t ựa</w>
suspe cted</w>
por n</w>
organi c</w>
ni k
n ản</w>
medi cation</w>
ma di
issu ed</w>
help ful</w>
exper im
emo tion</w>
dun can</w>
bi ng
admi re</w>
supre me</w>
s words</w>
pros titu
physi cally</w>
o tic</w>
mo ore</w>
ka thy</w>
gi ếng</w>
deman ds</w>
cá u</w>
char ley</w>
c ụm</w>
bail ey</w>
đ ũa</w>
va ti
to i</w>
ng ơ</w>
men tary</w>
mee tings</w>
m ỡ</w>
le x</w>
is ting</w>
is ms</w>
in stal
ha r</w>
di d.</w>
con tain</w>
clos est</w>
chri sto
ch áº</w>
ben ding</w>
approxi mately</w>
appro ved</w>
and al</w>
alzhe imer</w>
wiz ard</w>
wal lace</w>
unti e</w>
re treat</w>
re cover</w>
peri meter</w>
nh áy</w>
ne phew</w>
na il</w>
n én</w>
lan a</w>
go m</w>
do ạ</w>
defin ition</w>
de fi
chap ter</w>
ch eating</w>
c ối</w>
wel l.</w>
va r</w>
tt i</w>
s ưởi</w>
repor ting</w>
nh ũng</w>
nee dle</w>
mp h</w>
mon ds</w>
hon our</w>
experim ents</w>
execu tive</w>
ex trac
deb ate</w>
conf ess</w>
thou se</w>
pos ted</w>
phoeni x</w>
ng ai</w>
m ấu</w>
jona than</w>
dis cre
detro it</w>
deni ed</w>
dea dly</w>
com mission</w>
addi tional</w>
ac id</w>
tis m</w>
quin n</w>
pe ter
lo th
lo c
kh ống</w>
j ess</w>
ho t
es is</w>
emb race</w>
do ms</w>
do lo
diffi cul
cy n
bu ô</w>
- how</w>
t ặc</w>
pur se</w>
per ry</w>
penn sylvania</w>
pay ment</w>
pa tion</w>
pa i
p ill</w>
nhi á</w>
mir anda</w>
m ill</w>
kh ờ</w>
ju ry</w>
in son</w>
in i</w>
hu mor</w>
dragon s</w>
de fine</w>
ch ửi</w>
đư ơc</w>
trac y</w>
squ ir
sin k</w>
rus sell</w>
ru mors</w>
r ho
pen is</w>
paradi se</w>
foo lish</w>
epi so
d ell</w>
clin ton</w>
absolu te</w>
theod ore</w>
ski p</w>
si ck
pois oned</w>
pas ses</w>
ob sessed</w>
ni cole</w>
ne e</w>
min i</w>
men t.</w>
li k</w>
le e
kat ni
j e</w>
increas ing</w>
half way</w>
gi fts</w>
fun ding</w>
fif teen</w>
ex pan
esco bar</w>
di g
ar range</w>
accur ate</w>
to ys</w>
t ball</w>
sp il
see king</w>
pun ish</w>
nghi êng</w>
min or</w>
ma ck
la p</w>
ja zz</w>
inclu ded</w>
i i
er ror</w>
enti al</w>
ca kes</w>
atta ched</w>
arrang ed</w>
y uri</w>
xo áy</w>
si e</w>
rema ining</w>
ra ine</w>
qu anti
po s</w>
pit ch</w>
pa ys</w>
nh ai</w>
nguy en</w>
mo re
me tro</w>
j in
inten tion</w>
hi p
con stant</w>
ar mor</w>
so ph
nu tri
n ä</w>
mal es</w>
m ư</w>
in tel
import ance</w>
hal t</w>
eli as</w>
e nh
de cor
bat man</w>
a. m.</w>
20 15</w>
so viet</w>
l it</w>
ki r
je wish</w>
fe ars</w>
c ac
arti sts</w>
amo ng
air lines</w>
đ ùi</w>
vie wed</w>
v .</w>
thre ats</w>
samu rai</w>
rou gh
organiza tions</w>
opportuni ties</w>
o y</w>
mor ris</w>
jani ce</w>
indi ans</w>
ho u</w>
fa x</w>
en tre
ei gh
ba xter</w>
as ed</w>
adver ti
we i</w>
ven e
tt le
to ps</w>
sustain able</w>
sequ ence</w>
s ta</w>
reli ef</w>
perman ent</w>
peace ful</w>
oun ce</w>
mo b</w>
lin ked</w>
ill ness</w>
i de
comp are</w>
cl usion</w>
app lied</w>
ag ement</w>
đo a</w>
tw ins</w>
su z
ro o</w>
re pair</w>
plan ted</w>
ph ẳng</w>
nh am</w>
mi ện</w>
magne tic</w>
mag nifi
l ẻn</w>
l úa</w>
institu tions</w>
inju ry</w>
homel ess</w>
gro ws</w>
fun ds</w>
ea ts</w>
del ay</w>
cli p</w>
che cks</w>
c ó.</w>
bo d</w>
associ ation</w>
wa i</w>
tri als</w>
terror ism</w>
ser t</w>
recomm end</w>
presi dential</w>
n u</w>
commit ment</w>
co b
c ence</w>
anti ci
among st</w>
9 00</w>
7 .
- được</w>
wonder ed</w>
v ác</w>
tour na
techni que</w>
stan ley</w>
ser ves</w>
petr elli</w>
person ality</w>
pe p
oli via</w>
mar ti
gh ten</w>
ga u
dun bar</w>
dev a
d à</w>
crow ley</w>
comp on
civili zation</w>
ca tching</w>
awk ward</w>
anni ver
v ặn</w>
unexpe cted</w>
on al</w>
ne ys</w>
mi ng
lư ời</w>
in fla
gl oria</w>
formu la</w>
flo ating</w>
ett es</w>
differ ences</w>
ch ồn</w>
cardin al</w>
ath le
xo a</w>
vn d
ta u
sho t
p our</w>
negoti ate</w>
mot or
mo de</w>
hy per
h c
gener ally</w>
fi s
div ine</w>
color ado</w>
ch es
b ời</w>
snea k</w>
sh ort
nh úng</w>
ma ture</w>
kho án</w>
intel le
il and</w>
ga p</w>
dy lan</w>
cor ri
cly de</w>
as pe
an a
7 7</w>
y up</w>
warri ors</w>
v la
t z
shar on</w>
sen ds</w>
ro bo
prepar ing</w>
mu ỗi</w>
mala ysi
imp erial</w>
i rish</w>
h hh</w>
ge ograp
fre sh
eleph ant</w>
cô .</w>
ch ợt</w>
camp us</w>
be tray</w>
be ef</w>
b ắ</w>
apa che</w>
al ley</w>
- sao</w>
whe els</w>
w h</w>
ver sus</w>
th or</w>
stor age</w>
nhi ếp</w>
nh au
mor i
mean while</w>
m ba
li am</w>
katni ss</w>
f s</w>
entre pre
che e
bo ot</w>
be ans</w>
0 5</w>
sh rin
sh re
reve aled</w>
re infor
po em</w>
mo l
he ck</w>
dra ke</w>
de z</w>
so lo
so ap</w>
satis fied</w>
re covery</w>
rap ed</w>
nguy ễn</w>
nel son</w>
langu ages</w>
gar den
eu gene</w>
cra shed</w>
ari zona</w>
a tional</w>
vi sa</w>
soph isti
soci e
sion ate</w>
re covered</w>
profes sion
philipp ines</w>
nghi ê</w>
mr i</w>
ke ts</w>
for bi
eng agement</w>
embarra ssed</w>
el u
d s.</w>
congres sman</w>
co ke</w>
ch ess</w>
ar e.</w>
wal es</w>
w u</w>
v ướng</w>
tal kin</w>
sugg es
recei ving</w>
org ans</w>
ni kita</w>
m ánh</w>
li ê</w>
leon ardo</w>
inv est</w>
imp li
hei ghts</w>
fra ud</w>
du mb
di stant</w>
d war
bu sted</w>
bor ro
apo logy</w>
anti bio
ad mitted</w>
ờ .</w>
sugge sted</w>
sp el
roo m
r ổ</w>
r ts</w>
r ounds</w>
pos es</w>
ol dest</w>
nor a</w>
lion el</w>
khi ếm</w>
i phone</w>
frighten ed</w>
fol k</w>
fil ed</w>
dro ps</w>
d ẻo</w>
corpor ation</w>
bi o</w>
b ble</w>
am .</w>
x ót</w>
vi enna</w>
ti l
th ảy</w>
ste fan</w>
si es</w>
p unk</w>
mon i
min es</w>
m pe
k ang</w>
journ alist</w>
gol d
gi b
ele cted</w>
do o
contro ls</w>
che at</w>
ch en
ar es</w>
alli son</w>
th ươn</w>
sto red</w>
man kind</w>
lim its</w>
glen n</w>
gala xy</w>
franken stein</w>
cyn thia</w>
vigi lan
travel ed</w>
ti tan</w>
th ét</w>
ta ke
spe ct
shak espe
sha dows</w>
s. t.
quie tly</w>
poe try</w>
patr ol</w>
nh ượng</w>
n æ</w>
infra structure</w>
hi á</w>
gi ã</w>
gather ing</w>
flo o
f ans</w>
expres sion</w>
christo pher</w>
ca tho
bun ny</w>
be .</w>
b ì</w>
a da
9 .
us ting</w>
son .</w>
scor pi
re my</w>
pra yer</w>
nh úc</w>
nh é.</w>
ng ầu</w>
ja de</w>
ha o</w>
er ra</w>
elec tro
cre ek</w>
condu ct</w>
ch ọi</w>
cal vin</w>
ca sti
ư ờ
đị t</w>
v ách</w>
tremen dous</w>
tr ơn</w>
th o</w>
t ỉa</w>
st ap
sp a
r ễ</w>
o ve</w>
n ạt</w>
metho ds</w>
mas sage</w>
look in</w>
lar i
kid ney</w>
ki ssing</w>
khi ết</w>
fr ost</w>
establi shed</w>
do t</w>
der ly</w>
car to
bi as</w>
b ling</w>
app a</w>
5 ,
tri e</w>
tr es</w>
super man</w>
ral ph</w>
pu mp</w>
ot ed</w>
hi de
gen tly</w>
fast est</w>
ex am</w>
dol ph
dis gu
ci st</w>
ch ật</w>
br us
am o</w>
7 9</w>
6 3</w>
20 14</w>
we ster
u mbre
thir sty</w>
sugg esting</w>
por ter</w>
p am</w>
out come</w>
off .</w>
no bel</w>
n z
mi key</w>
gather ed</w>
di ệp</w>
clusi ve</w>
ca h</w>
b ap
atlan tic</w>
ti ck</w>
ra h</w>
pri ck</w>
lands cape</w>
investi gate</w>
g ạo</w>
exam ples</w>
enjo yed</w>
des cen
cu lar</w>
comple ted</w>
c d</w>
ti er</w>
surpri sing</w>
st all</w>
re tired</w>
prenti ss</w>
pl ed</w>
paper work</w>
l ên.</w>
hos tages</w>
gre na
earth quake</w>
di al</w>
civili ans</w>
ch anh</w>
canadi an</w>
ca mel
ướ c.</w>
đi ể</w>
zo o</w>
th án</w>
t ang
t ack
surviv ors</w>
sto res</w>
shoot er</w>
sh an
s ã</w>
propos al</w>
par ano
or gan</w>
ni gger</w>
man ner</w>
kin e
ju mping</w>
in er</w>
confes sion</w>
camp bell</w>
c ún</w>
ab s
a qu
đi êu</w>
tun e</w>
tter ing</w>
tri ple</w>
ta stes</w>
sna p</w>
ro ad
recogni zed</w>
re presents</w>
re placed</w>
pal m</w>
ok s</w>
li êng</w>
li ke
k ề</w>
in ches</w>
grun ts</w>
cra ig</w>
alis on</w>
ỉ m</w>
univer sal</w>
ti vi</w>
th ful</w>
spea ker</w>
si e
s éc</w>
pas sword</w>
naz ir</w>
h ạch</w>
ff y</w>
employe e</w>
di sh
dete ct</w>
d v
bur st</w>
bb c</w>
avo i
allo wing</w>
6 2</w>
x ỉ</w>
wa shed</w>
ul timate</w>
thu ô</w>
th ẳ
techno log</w>
sur vey</w>
she et</w>
se aled</w>
ru led</w>
regi stered</w>
r ên</w>
ph u
ph anh</w>
nh ích</w>
nan do</w>
loy ment</w>
lor raine</w>
l ãi</w>
institu tion</w>
hei di</w>
grap hic</w>
en ess</w>
e c</w>
deser ved</w>
ben e
anony mous</w>
- okay</w>
trans mission</w>
terri fic</w>
sur ing</w>
st ain</w>
s ỉ</w>
psychi a
n ang</w>
mo re.</w>
madi son</w>
j ai</w>
inten se</w>
hu t</w>
her e
e w</w>
di ễu</w>
dar k
d at</w>
con way</w>
cho áng</w>
ch ích</w>
broad cast</w>
ba ch</w>
assign ment</w>
anniver sary</w>
vir tual</w>
vi ếng</w>
sel f.</w>
par kman</w>
j okes</w>
h ử</w>
g wen</w>
fe ng</w>
assu med</w>
ali zation</w>
al lah</w>
ab sor
1 1
win ds</w>
tr ặc</w>
ti ts</w>
sli pped</w>
rea cher</w>
nh ỡ</w>
nh ược</w>
must n</w>
k ent</w>
cro ft</w>
chas ed</w>
can cel</w>
ca mb
c en</w>
boy ka</w>
5 000</w>
v ành</w>
tru cks</w>
to e</w>
thomp son</w>
stan nis</w>
politi cians</w>
pla tes</w>
p lot</w>
no lan</w>
n óc</w>
n ag
lo cate</w>
h ăng</w>
cra s
clini cal</w>
chemi stry</w>
b ổng</w>
b ầm</w>
ar ctic</w>
8 2</w>
tu b</w>
sub way</w>
qu át</w>
poin ted</w>
ou s.</w>
ne ck
med al</w>
m all</w>
laun dry</w>
kh ác.</w>
hu go</w>
hel ena</w>
free zing</w>
enfor cement</w>
en vel
el se
ed ith</w>
dra gged</w>
dea f</w>
co tton</w>
che er
al as
v ãn</w>
tr ated</w>
shakespe are</w>
puni shed</w>
on ic</w>
ng ụ</w>
michi gan</w>
m ốc</w>
k ka</w>
impres sion</w>
go als</w>
glo be</w>
g ầy</w>
fli ghts</w>
exha u
colu mbia</w>
carol ina</w>
bu l</w>
bi ể</w>
an ato
. ....</w>
y ell</w>
ven ice</w>
tril lion</w>
te d
t y.</w>
ser ver</w>
sa tan</w>
ru sty</w>
predi ct</w>
ph ụng</w>
or n</w>
ly le</w>
l ách</w>
he ight</w>
hal lucin
ha bit</w>
h k</w>
gen esis</w>
fu r</w>
dign ity</w>
ca bin
bea m</w>
b ọt</w>
an gie</w>
a venue</w>
6 7</w>
õ m</w>
war ehouse</w>
tr æ</w>
teri es</w>
ro d</w>
princi ple</w>
pi sto
mar t</w>
m ck
le f
jo an</w>
in tu
imag in
i ngs</w>
home work</w>
en courage</w>
do zens</w>
cti ves</w>
comp ound</w>
cl ing</w>
chu m</w>
ch à
bu tter</w>
bal lo
b ùm</w>
an h
accep table</w>
- chào</w>
v et</w>
transpor tation</w>
str ain
sp reading</w>
si nger</w>
s ansa</w>
regar ding</w>
pac king</w>
nh àm</w>
n ắp</w>
min ing</w>
l ươ</w>
it er</w>
is sa</w>
enter tainment</w>
appro val</w>
ề ng</w>
đi ếc</w>
z ack</w>
who a.</w>
vir tu
v ùi</w>
u kra
su r</w>
st un
s á
r anger</w>
r ang</w>
photograp hs</w>
juli an</w>
im ing</w>
hon ored</w>
ha iti</w>
gri m</w>
dr ank</w>
co la</w>
co des</w>
ca ttle</w>
c using</w>
ar i</w>
al ine</w>
al f</w>
đ ộ
y d</w>
us a</w>
sub jects</w>
pro posed</w>
n .
mi cah</w>
m ô
hu nger</w>
glo b
eur o</w>
eli jah</w>
commission er</w>
ca val
b ìa</w>
6 8</w>
- con</w>
stru ggling</w>
ri ver
ra w</w>
phi ện</w>
out fit</w>
no l
e bo
ch ôm</w>
br andy</w>
bi ngo</w>
bal l
assho les</w>
as set</w>
7 6</w>
v ạt</w>
v ated</w>
tourna ment</w>
tha iland</w>
so lo</w>
rob bed</w>
por tu
passe nger</w>
m ầm</w>
l ựu</w>
jai me</w>
gi ầy</w>
el and</w>
cur tis</w>
cras sus</w>
cigar ettes</w>
be ar
appli cation</w>
announ cement</w>
xo ắn</w>
tr ã</w>
terri fied</w>
rela tions</w>
pro tot
oc ta
mar tin
m ly</w>
m be</w>
jan et</w>
fur nit
f .
exc el
corre cted</w>
chapp ie</w>
ch ặng</w>
c ưa</w>
8 .
đ ìn</w>
đ ao</w>
yo ga</w>
whi st
u nh</w>
tra gic</w>
tr ư</w>
swal low</w>
s cent</w>
resour ce</w>
re su
r ầy</w>
r á</w>
pro ved</w>
migra tion</w>
ju de</w>
g ina</w>
ed gar</w>
bro k</w>
ame lia</w>
- the</w>
đ ắc</w>
tw in</w>
to .</w>
thi eves</w>
sil k</w>
sco o
s sa</w>
r áp</w>
ph ước</w>
ph y
ow a</w>
me i</w>
hu gh</w>
gra ms</w>
gi ời</w>
disor der</w>
cre epy</w>
child re</w>
ca iro</w>
al ties</w>
a v
vide os</w>
skin ny</w>
s cul
produ ctive</w>
p ers</w>
mortal ity</w>
l ẹ</w>
kh ăng</w>
fri ed</w>
exhau sted</w>
drea med</w>
di l
cor al</w>
ch uối</w>
ca ta
a ward</w>
vati can</w>
tu ck</w>
tel esco
sour i</w>
ro meo</w>
re act</w>
r ùa</w>
promis es</w>
pre y</w>
pear l</w>
mis souri</w>
mi ra
marke ting</w>
ma tches</w>
lu ậ</w>
leg acy</w>
ki cking</w>
k li
inno va
informa tio</w>
desti nation</w>
cu t
con crete</w>
che f</w>
cei ved</w>
buff alo</w>
ứ n</w>
wi c
war ren</w>
sel ve</w>
rela tive</w>
po ckets</w>
mor t
m ảng</w>
hu ệ</w>
gi u
dre ssing</w>
corrup tion</w>
belo nged</w>
bea ts</w>
anno ying</w>
ac cent</w>
đ ậm</w>
x ịt</w>
wr apped</w>
wor ries</w>
tra ding</w>
su it
su ffi
protot y
ob i</w>
mc gill</w>
il er</w>
h ù</w>
flo yd</w>
de er</w>
cy rus</w>
con science</w>
cis m</w>
che er</w>
bor g</w>
b áng</w>
as y</w>
arri val</w>
an ton</w>
ve ter
tr al</w>
thir teen</w>
stand ards</w>
six th</w>
ro ots</w>
nh ào</w>
mer y</w>
k ìm</w>
et ta</w>
e ma
d ine</w>
ar gh</w>
ani um</w>
ad ren
ab s</w>
- ông</w>
to ma
stu re</w>
sign als</w>
si m</w>
rap i
quali fied</w>
nz t</w>
mor phine</w>
malaysi a</w>
lo la</w>
list ed</w>
know led
j am</w>
ha un
flu id</w>
ex isting</w>
ex cep
evol ved</w>
er m</w>
đ ắp</w>
vari ety</w>
unfortun ate</w>
the e</w>
stru ctu
sco tch</w>
puzz le</w>
pra ying</w>
occu r</w>
na ils</w>
loa ding</w>
inclu des</w>
fanta sy</w>
ea d</w>
d able</w>
ba g
b ư</w>
ar m
al b
đi ệ</w>
y ến</w>
u te</w>
sur geon</w>
si p</w>
pu ppy</w>
pres sed</w>
pos session</w>
ph ang</w>
mini mum</w>
len e</w>
l ling</w>
l est</w>
ke o</w>
homel and</w>
har m
fil ling</w>
epi demic</w>
en er</w>
dia monds</w>
descri ption</w>
d ưng</w>
cor pse</w>
con clu
comra de</w>
chan cel
bả nh</w>
ba it</w>
ab les</w>
đ úc</w>
ten der</w>
t ượn</w>
su cker</w>
s sy</w>
r he
pr on
occa sion</w>
mil an</w>
le gen
l ẫy</w>
in ts</w>
g ào</w>
frequ ency</w>
far e
dep end</w>
cur sed</w>
collap se</w>
co operation</w>
che on</w>
ch amp</w>
bru no</w>
bro ad</w>
bar n</w>
b out</w>
10 .000</w>
umbre lla</w>
superi or</w>
she ila</w>
ro ck
re hear
ph ết</w>
pas sage</w>
p ace</w>
le en</w>
investiga ting</w>
ine a</w>
fu l.</w>
fin ance</w>
fa ul
effi ci
d wi
colle cted</w>
cock tail</w>
at er
6 ,
- cậu</w>
under wear</w>
un a</w>
u ts</w>
trans plant</w>
tr áº</w>
si l</w>
sa marit
ng ần</w>
mon k</w>
inju ries</w>
in qui
gi áº</w>
g ầm</w>
el even</w>
diver sity</w>
cover s</w>
ca in</w>
zz ie</w>
v ọn</w>
under cover</w>
thi ế</w>
sen ses</w>
se ed</w>
sc out</w>
re turns</w>
privile ge</w>
pi rate</w>
mil len
ma ke
les lie</w>
khuy a</w>
homi cide</w>
gand alf</w>
dan e</w>
con tains</w>
colle ctive</w>
cl an</w>
c pd</w>
bro oke</w>
bo ld</w>
ượ m</w>
xu ẩn</w>
vit al</w>
tri ệt</w>
thank s.</w>
th ầ</w>
separ ated</w>
sal ad</w>
ri ng
prote ctive</w>
ngh ênh</w>
nar row</w>
n -</w>
mus lim</w>
mon keys</w>
loth brok</w>
k le
hu h.</w>
h es</w>
furnit ure</w>
fa iling</w>
diagnos is</w>
bi áº</w>
an toni
ac tors</w>
ti ệ</w>
ta sha</w>
t ết</w>
s.t. a.
r ỡ</w>
py ra
poli ce
isa bel</w>
ha bit
gre gory</w>
gra ham</w>
ga mbling</w>
d z
d t</w>
assas sins</w>
am en
20 18</w>
wi red</w>
volu me</w>
ti de</w>
ter ing</w>
sque eze</w>
sch mid
s uối</w>
ro of
ri g</w>
pa r</w>
mon a</w>
mi cro</w>
mc cl
lo ạ</w>
len ny</w>
la mb</w>
khi ê</w>
je ws</w>
is la
is a</w>
el .</w>
d ose</w>
car men</w>
car go</w>
c ọ</w>
c ó
bo dy
0 8</w>
ỏ m</w>
wh a</w>
v s</w>
sk et</w>
sar s</w>
q ae
no ted</w>
no t
mont go
m -</w>
kni ghts</w>
ka r</w>
j ang</w>
di ngton</w>
cor d</w>
coo kie</w>
con .</w>
ch ọ</w>
busin ess
ado pted</w>
6 6</w>
ị c</w>
ạ .</w>
ta b
so le</w>
sa o.</w>
ri pped</w>
ri gh
representa tive</w>
r ót</w>
que ens</w>
qae da</w>
pp ers</w>
or ph
mus cles</w>
lar a</w>
k k
j c</w>
in sul
ho me.</w>
h ẻm</w>
fil ms</w>
f us
e cho</w>
cử u</w>
an tar
a shes</w>
7 ,
20 th</w>
ầ n.</w>
tran spar
te d.</w>
tali ban</w>
t ý</w>
s giving</w>
psy chop
por tra
pe an
o ath</w>
ma dness</w>
lu min
le ton</w>
l ầy</w>
ill us
du mped</w>
d ươ</w>
cu e</w>
con serva
cho i</w>
back wards</w>
b ổn</w>
b ón</w>
y un</w>
x ít</w>
wa shing</w>
toxi c</w>
sugge sts</w>
sa man
s nu
ru mor</w>
recogni tion</w>
r ải</w>
pro ba
phra se</w>
o mi</w>
net works</w>
montgo mery</w>
ini tial</w>
heal ing</w>
gi ỏ</w>
gi le</w>
ger ald</w>
fle tcher</w>
electron ic</w>
dis play</w>
con dem
chancel lor</w>
champi on
ch ổi</w>
bar rel</w>
astron o
2 97</w>
thor n</w>
t down</w>
scr at
rober to</w>
nh o
mista ken</w>
mar ion</w>
ma ine</w>
m aps</w>
led ore</w>
khi ên</w>
hur ri
h n</w>
gh ing</w>
forgi veness</w>
forbi dden</w>
fit z
fac tion</w>
execu ted</w>
engine ers</w>
emp o
destro ying</w>
de e
d aph
conne cti
cl er
c ile</w>
boar ding</w>
as ses</w>
appro ve</w>
app eal</w>
đ ãng</w>
v or
v ali
trans form</w>
tra ins</w>
tr ọ</w>
th under</w>
telesco pe</w>
ta ined</w>
sau ce</w>
sa b
reque sted</w>
ph on</w>
palesti ne</w>
j el
hou sing</w>
cour se.</w>
ch ẽ</w>
blo cked</w>
bel la
be ta</w>
appe arance</w>
ali ens</w>
alas ka</w>
abs ence</w>
wa te</w>
ros si</w>
pu p
pl ying</w>
pi ck
ph ara
perfor med</w>
pea body</w>
nhau .</w>
mar rying</w>
m ere</w>
legi timate</w>
j j</w>
in t
in sult</w>
he ir</w>
exi sted</w>
else where</w>
conveni ent</w>
catho lic</w>
ani ta</w>
al on</w>
al l.</w>
0 6</w>
ãª ì</w>
vis or</w>
tt en</w>
to k</w>
thẳ m</w>
ru ral</w>
reti rement</w>
re solution</w>
parti cles</w>
nin ja</w>
me ds</w>
lu ồng</w>
lou ise</w>
iso lated</w>
hor se
civili an</w>
ch ải</w>
bub ble</w>
v enti
unh appy</w>
ten nes
ta ils</w>
sp ots</w>
sol ving</w>
sand ers</w>
pur ple</w>
pain tings</w>
ologi st</w>
neur ons</w>
n ực</w>
n áº</w>
n apo
inter pol</w>
i de</w>
hu mble</w>
h áº</w>
gu m</w>
faci al</w>
ev ed</w>
cl evel
chop per</w>
cha ins</w>
br ac
antoni o</w>
wi d
wei gh</w>
vol can
ve nge
tr út</w>
sta ting</w>
shot gun</w>
shi p
s have</w>
ru b</w>
mor on</w>
lu xu
li o</w>
l ộng</w>
infe ctions</w>
in je
hori zon</w>
explosi ves</w>
e mili
chap man</w>
camel ot</w>
blo ws</w>
believ ing</w>
bal ti
arri ving</w>
8 6</w>
yo n
wi cked</w>
threat en</w>
th ây</w>
st abbed</w>
sp ire</w>
ran ch</w>
presen ted</w>
obje ctive</w>
no el</w>
ne v
min us</w>
hypo the
good night</w>
glo ves</w>
ga ined</w>
eter nal</w>
dolo res</w>
9 4</w>
â n.</w>
vi ng
stu art</w>
sh an</w>
re tri
re store</w>
ques tioning</w>
pro vin
pro ven</w>
pro test</w>
pollu tion</w>
pla gue</w>
ph ác</w>
obe y</w>
o x</w>
o lo</w>
nur ses</w>
mar vin</w>
mar ines</w>
life .</w>
li ếm</w>
ga o</w>
fre ddy</w>
eng ines</w>
el in</w>
d ươn</w>
conspir acy</w>
ali a</w>
aggres sive</w>
ac qu
3 0,000</w>
- xin</w>
đ ó
y ah</w>
wor rying</w>
vo y
vit amin</w>
vigilan te</w>
swor e</w>
st ev
so kka</w>
so c
shoul ders</w>
sho cked</w>
r ine</w>
qu ạ</w>
provi ding</w>
pl er</w>
mb ly</w>
ma cy</w>
ja e</w>
fi e</w>
cu á</w>
cher ry</w>
cha d</w>
c ủng</w>
asse ts</w>
ar gen
ag u
7 4</w>
19 80</w>
ta xes</w>
t æ</w>
sh ang
saman tha</w>
s ap
ri vers</w>
ri on</w>
rea r</w>
r ét</w>
invol ve</w>
in o</w>
ho tch
dr one</w>
c ease</w>
ba il</w>
att acking</w>
as y
8 0
under stands</w>
tr ìn</w>
swor n</w>
sophisti cated</w>
schmid t</w>
s cro
real m</w>
pier ce</w>
ot t</w>
ok la
o the</w>
o ta</w>
o es</w>
nap les</w>
min a</w>
me te
maxi mum</w>
lu ck
l h
h r</w>
gu sta
fi sk</w>
fav our
ele ment</w>
de o</w>
con tain
circu it</w>
1 30</w>
xi e</w>
th ẹn</w>
s ạc</w>
reg ard</w>
re bel</w>
r án</w>
phil ly</w>
ni k</w>
mal aria</w>
list en.</w>
leng th</w>
la tes</w>
in tri
ho ma</w>
happ ily</w>
happ ier</w>
gri ef</w>
gre y
dre sses</w>
cor ona</w>
co on</w>
ap point</w>
air plane</w>
- and</w>
volunte er</w>
tru ồng</w>
tri ê</w>
touri sts</w>
some what</w>
sig ning</w>
samarit an</w>
s ố
princi ples</w>
pen alty</w>
p es
lang ley</w>
kho ăn</w>
j unk</w>
hea d.</w>
har bor</w>
h ưng</w>
gr abbed</w>
gg age</w>
gen o
g am</w>
fer tili
day light</w>
dar win</w>
concer t</w>
christi na</w>
bor ders</w>
b ừa</w>
b ới</w>
a sa
4 ,000</w>
.... ....
vene zu
tri x</w>
tan go</w>
si b
shou ting</w>
reli able</w>
reck on</w>
quan tum</w>
possi bilities</w>
pea k</w>
oun d.</w>
m ộ
m our
l ousy</w>
l ever
festi val</w>
facili ties</w>
expos ure</w>
evel yn</w>
den cy</w>
dedi cated</w>
cir cus</w>
car son</w>
c ằn</w>
be aring</w>
b ốt</w>
b bing</w>
as signed</w>
any a</w>
an c
agen cies</w>
v or</w>
ter i</w>
tat too</w>
solo mon</w>
shap ed</w>
sha king</w>
sear ched</w>
ro land</w>
re di
pp le</w>
over night</w>
ny pd</w>
musi cal</w>
mu mmy</w>
lin ess</w>
la ds</w>
ke en</w>
jo dy</w>
hc mc</w>
gi ở</w>
fortun ately</w>
f ry</w>
equ ally</w>
en ne</w>
el lie</w>
e cos
divi de</w>
cor ps</w>
contro ver
clo thing</w>
cli f
camb ridge</w>
c úng</w>
bl essing</w>
ba b</w>
assas sin</w>
tus k</w>
thank sgiving</w>
th ấm</w>
rey nol
reynol ds</w>
r ành</w>
r ance</w>
potenti ally</w>
po o
plu g</w>
ne z</w>
ka i
k ay</w>
i deal</w>
hu n</w>
hel lo.</w>
hea th
climb ing</w>
che z</w>
bu mp</w>
auth enti
vil la</w>
un likely</w>
ti ps</w>
ther esa</w>
t oss</w>
t l</w>
t ance</w>
stor y
sho w
s cou
ou ter</w>
n ine
it ch</w>
is on</w>
h ươ</w>
go ose</w>
fu ry</w>
flo od</w>
bra dley</w>
bot tles</w>
bi op
b are</w>
ar sen
- cái</w>
ê t</w>
wi dow</w>
wh ite
wh ale</w>
tes la</w>
su res</w>
st u</w>
spar row</w>
re ha
rar ely</w>
ra mon</w>
pl ess</w>
parti cle</w>
p. m.</w>
okla homa</w>
ner ves</w>
mo z
mi ê</w>
mes se
legi sla
l áng</w>
fore ig
explo de</w>
de cre
clear s</w>
bl ank</w>
bab y.</w>
ac le</w>
10 1</w>
zom bie</w>
wit z</w>
shel don</w>
re ne
pengu ins</w>
kh ỏ</w>
isra eli</w>
ing redi
ho ff
hall elu
gen u
fi ction</w>
episo de</w>
dumb ledore</w>
di sti
co pies</w>
cho w</w>
chemi cals</w>
c æ</w>
c dc</w>
authori zed</w>
al lies</w>
200 1</w>
0 7</w>
wre st
tor n</w>
thin kin</w>
th ầu</w>
su re
stub born</w>
stri kes</w>
sla p</w>
si zed</w>
screa ms</w>
r ợ</w>
pros pe
por ts</w>
mul der</w>
ma x
m ỉa</w>
lo op</w>
fo ols</w>
e yed</w>
divor ced</w>
comb ined</w>
clevel and</w>
choos ing</w>
centr e</w>
c c</w>
bu tt
bol ton</w>
an thro
wil ly</w>
t áng</w>
t p</w>
sa yin</w>
ru t</w>
r ủ</w>
par as
over come</w>
ma kers</w>
lo ve
lin derman</w>
l ú</w>
ja r</w>
hun ters</w>
gro ans</w>
dri vers</w>
dri ck</w>
di ane</w>
daph ne</w>
charac ters</w>
c ọc</w>
c ào</w>
bap ti
ar ena</w>
ar cher</w>
ị .</w>
x ảo</w>
tor tured</w>
th ắp</w>
ta s</w>
sti cking</w>
regar dless</w>
phan tom</w>
mi gu
hu ân</w>
execu tion</w>
depos it</w>
bur nt</w>
bu cket</w>
bro ck</w>
al ab
20 17</w>
wi l</w>
under water</w>
sor y</w>
pi rates</w>
kho áng</w>
ju pit
it em</w>
inven tion</w>
ho ả</w>
gra titude</w>
gl orious</w>
gen ome</w>
conver sations</w>
contin ent</w>
comm en
cl b</w>
bro ther
bon ds</w>
b ịp</w>
ó e</w>
wi ped</w>
v ăng</w>
tr ê</w>
ste war
sili con</w>
sau di</w>
s cra
refu ge
r ank</w>
que en
ph ì</w>
par lia
parlia ment</w>
ni ki</w>
ni ght.</w>
meta tron</w>
ma fia</w>
lu is</w>
leg ed</w>
k tor</w>
je op
inva sion</w>
har per</w>
go dd
g ô</w>
el derman</w>
ed itor</w>
discus sed</w>
d. c.</w>
cru ise</w>
bo y.</w>
bl u</w>
bei jing</w>
al bu
z an</w>
wo me</w>
v ụng</w>
to w</w>
ti re</w>
th under
sun ny</w>
stru ctures</w>
shar es</w>
rit ual</w>
res ting</w>
re serve</w>
qu â</w>
pro phe
p le
origin ally</w>
ore gon</w>
o la
nik ki</w>
lin a</w>
l em</w>
is er</w>
in stant</w>
gg ins</w>
co operate</w>
char m</w>
bre ed</w>
agri culture</w>
8 ,
19 90</w>
ụ a</w>
x ư</w>
w right</w>
up side</w>
twi st</w>
tuy ệ</w>
tu ỳ</w>
trac ked</w>
th ật.</w>
ta ining</w>
spac es</w>
s.t.a. r.</w>
rough ly</w>
refuge es</w>
proces sing</w>
ng ố</w>
nev ada</w>
ma ca
lu c</w>
labor atory</w>
jon ah</w>
instru ment</w>
hand led</w>
h áo</w>
el f</w>
cậ u.</w>
ca sting</w>
auth or</w>
associ ate</w>
2 1st</w>
đi ềm</w>
wo o
val i</w>
sh o</w>
sh .</w>
s ma</w>
ro dri
ro cky</w>
po lar</w>
nic ely</w>
na omi</w>
l lo</w>
imp ul
fo ren
egy p
e ded</w>
dor o
corpor al</w>
colle cting</w>
đ ệm</w>
we ars</w>
vi an</w>
v ượng</w>
tennes see</w>
sta bili
some thing.</w>
remin ded</w>
psy cho</w>
pro motion</w>
princi pal</w>
practi cal</w>
par en
no m</w>
ng ứa</w>
le thal</w>
le cture</w>
le an</w>
la ying</w>
indi cate</w>
heal th
h cm</w>
foren si
ebo la</w>
balti more</w>
alli ance</w>
advi sed</w>
ad ding</w>
đô la</w>
th uy
t --</w>
stan ford</w>
sar ge</w>
s ùng</w>
ros a</w>
r v</w>
pres sing</w>
poin ting</w>
o ops</w>
nh ủ</w>
m ỳ</w>
l ốp</w>
in car
im mortal</w>
i res</w>
f lynn</w>
ex tr
dis rup
di ce</w>
dep th</w>
dea con</w>
cour tes
costu me</w>
coo kies</w>
ba y
b ện</w>
and ro
ver se</w>
val ent</w>
syn dro
sta ir
st are</w>
sla ugh
si erra</w>
se o</w>
scul p
rol led</w>
pra yers</w>
martin i</w>
m me
kidn apping</w>
j r</w>
ill usion</w>
il le</w>
har mony</w>
gu lf</w>
fore sts</w>
en oug</w>
distribu tion</w>
coun sel</w>
cla u
a tic</w>
- nó</w>
rep li
pop s</w>
ne ver
n ồi</w>
mot el</w>
mari o</w>
mar a</w>
m ỉm</w>
lor ds</w>
la yer</w>
jupit er</w>
jo el</w>
i --</w>
hay ley</w>
gi eo</w>
gh an</w>
ecos y
desig ner</w>
com mon
ch ùi</w>
cabin et</w>
ani an</w>
alex is</w>
wan da</w>
tran sa
se ñ
sand ra</w>
s cy
predi ctable</w>
off ers</w>
oce ans</w>
ju ana</w>
hu l
fi anc
estab lish</w>
don key</w>
con nie</w>
compromi sed</w>
blan ket</w>
b ộc</w>
ad vo
a way.</w>
wi kine
wikine ws</w>
vot ed</w>
trans mit
tab let</w>
t ựu</w>
t ậ</w>
t ney</w>
soc cer</w>
regu lations</w>
po e</w>
pe z</w>
ne .</w>
magnifi cent</w>
ka therine</w>
je ep</w>
h our
fro g</w>
fe wer</w>
f led</w>
ep .</w>
du g</w>
depres sed</w>
compe te</w>
ba m</w>
b ạn.</w>
as m</w>
arrange ment</w>
đ ểu</w>
y n
wor m</w>
wher eas</w>
t ụt</w>
su ite</w>
ri co</w>
rela tively</w>
rapi dly</w>
r ìa</w>
no tion</w>
nh ức</w>
napo leon</w>
migu el</w>
la s
jeop ar
inev itable</w>
hand ling</w>
go e
fi li
ex tend</w>
en cry
e i</w>
dra ma</w>
dis ney</w>
dis missed</w>
dire ctions</w>
depen ding</w>
cri ed</w>
cen ters</w>
ce iling</w>
c ành</w>
ben ny</w>
be ver
ag i</w>
9 3</w>
wor k.</w>
whi stle</w>
v àn</w>
the me</w>
tan ts</w>
t ted</w>
supp er</w>
st ella</w>
shel f</w>
se du
rever end</w>
respon ding</w>
rand all</w>
psycho logical</w>
nh ăn</w>
ng ạt</w>
metap h
kat ara</w>
kar a
jeff rey</w>
it ors</w>
is ha
han ni
gr o</w>
dr un
disagre e</w>
cos ta</w>
con test</w>
co oked</w>
are z</w>
appe ti
un conscious</w>
the l</w>
str ain</w>
sn art</w>
situ ations</w>
ro gue</w>
ri ta</w>
pur su
ni an</w>
na ka
mur dock</w>
main ly</w>
m ép</w>
m ite</w>
hes it
heaven s</w>
cy ber
ctu al</w>
cr an
class room</w>
can yon</w>
bas ke
ax it</w>
annu al</w>
a ds</w>
u hh</w>
trea son</w>
th ra
t we
st ack</w>
sk a</w>
se e.</w>
scri pt</w>
rela tives</w>
petro v</w>
new ton</w>
n úp</w>
move ments</w>
los es</w>
je w</w>
ite ms</w>
hen dri
ha yes</w>
fin ed</w>
fav our</w>
es s.</w>
en berg</w>
e ter</w>
defin ed</w>
cau tion</w>
but ler</w>
b jor
z ia</w>
wre ck</w>
wil lie</w>
wi re
vot es</w>
stop .</w>
shit ty</w>
s m</w>
s by</w>
rub ber</w>
repor ters</w>
redu ced</w>
prosecu tor</w>
pos ter</w>
over .</w>
ng ó</w>
mer ce
me lissa</w>
l ìn</w>
hos tile</w>
fare well</w>
fac tors</w>
dete cted</w>
con sent</w>
co y</w>
c ừ</w>
bran ch</w>
bo oth</w>
ad es</w>
25 9</w>
1 .000</w>
sun shine</w>
sh ining</w>
san chez</w>
s y.</w>
s chi
ri am</w>
rebel s</w>
phara oh</w>
pe ti
partici pate</w>
or bit</w>
neck lace</w>
ne mo</w>
n ẵng</w>
la c</w>
l. a.</w>
j ia</w>
ha t
guy .</w>
ga be</w>
g ag
fi es</w>
cr ane</w>
coun tr</w>
control ling</w>
ca st
ca mil
c ỡi</w>
bra in
bra i</w>
blo ck
attemp ted</w>
assi st</w>
advi se</w>
&apos; re</w>
z el</w>
tr àng</w>
termin al</w>
te qu
t ẻ</w>
pro ph
pro found</w>
ob serve</w>
mother fuckers</w>
l ội</w>
gra ves</w>
di ệ</w>
di ggle</w>
deli ber
challe nging</w>
ch ùm</w>
car ni
cal eb</w>
c row</w>
ban k
as i</w>
z ar</w>
y ale</w>
wa king</w>
vi cky</w>
v als</w>
u tili
thu mb</w>
ter nal</w>
spot ted</w>
spe cu
si an</w>
righ te
pros per
pro por
os a</w>
medi um</w>
kar ate</w>
increa singly</w>
in tru
hu m
h òng</w>
fe ar
f ang</w>
di oxide</w>
cont acted</w>
bomb ing</w>
ali ke</w>
- vậy</w>
vir gil</w>
vi ktor</w>
venge ance</w>
ul f</w>
tr is</w>
suspi ci
stero id</w>
stati stics</w>
sp ill</w>
seven th</w>
sal v
ri sky</w>
ri d
re cy
pur suit</w>
phil lips</w>
phenomen on</w>
oppon ent</w>
mus h
mo tive</w>
lyn ch</w>
li est</w>
less ly</w>
l ấn</w>
ha cked</w>
gra in</w>
f ag
el sa</w>
di ary</w>
con clusion</w>
colu m
ck ling</w>
chà o.</w>
bren dan</w>
bot t</w>
bor ne</w>
announ ce</w>
am mo</w>
vi sible</w>
vi ral</w>
tr ô</w>
tch en</w>
stev ens</w>
ste vie</w>
spl en
south east</w>
ra z
qu ấn</w>
pe eta</w>
ni ece</w>
n ín</w>
mee ts</w>
me th</w>
lea ther</w>
kil o</w>
i ze</w>
hi ể
ha ul</w>
gel ler</w>
de als</w>
d ẫm</w>
cru ci
conven tion</w>
cei ve</w>
ar ty</w>
anxi ety</w>
za ch</w>
typi cally</w>
tan ks</w>
sta b</w>
shang hai</w>
room mate</w>
re ference</w>
r ình</w>
nu mber
n ại</w>
impro ved</w>
i owa</w>
gi nger</w>
fea tures</w>
ess ence</w>
discipl ine</w>
di shes</w>
da v
coordin ates</w>
clu bs</w>
clo wn</w>
certi fi
c ey</w>
bit ter</w>
ama te
achiev ed</w>
0 9</w>
đ ốm</w>
wor thless</w>
vla di
tra ting</w>
so ber</w>
sli ce</w>
ro de</w>
rip ley</w>
pen e
pa tho
p li
ni ng.</w>
nh ữ
j ong</w>
inspi ration</w>
inse cts</w>
i o</w>
her bie</w>
har dest</w>
fu ri
fi er
ele ctions</w>
comp en
chea ted</w>
cep ti
bar gain</w>
2 nd</w>
- who</w>
tion s.</w>
ti ng.</w>
stin k</w>
spirit ual</w>
sho ps</w>
s ưng</w>
re i
re con
practi cing</w>
poli te</w>
pit ts
lo cations</w>
lo bby</w>
kin dness</w>
indepen dence</w>
harv est</w>
gam ma</w>
g óa</w>
experien cing</w>
exp and</w>
elimin ate</w>
effe ctively</w>
diagnos ed</w>
cla yton</w>
chứ .</w>
chan ey</w>
ch ell</w>
bu tch</w>
bru tal</w>
b én</w>
argu ing</w>
ap est</w>
ani el</w>
ag en</w>
- where</w>
tu co</w>
si ngs</w>
radi cal</w>
preci se</w>
parano id</w>
pan el</w>
nood les</w>
nhi ệ</w>
molecu les</w>
m ách</w>
là m.</w>
lu ther</w>
l éo</w>
jud ith</w>
in da</w>
gr aci
follo ws</w>
fle xi
evacu ate</w>
dimen sional</w>
de x</w>
compla in</w>
chi cks</w>
che ering</w>
bel ls</w>
b oul
ar rows</w>
ar oun</w>
agen da</w>
20 13</w>
y --</w>
t ụng</w>
t ori
t ley</w>
stea k</w>
sk ele
si ết</w>
se oul</w>
s ore</w>
roos evel
roosevel t</w>
qu á.</w>
preven tion</w>
mechani cal</w>
li b
la zy</w>
kur t</w>
jas mine</w>
jac ques</w>
hi ve</w>
her d</w>
heavi ly</w>
hal e</w>
h ú</w>
f l</w>
et c</w>
con fron
celebra tion</w>
celebra ting</w>
ca de</w>
c ủi</w>
c ấ</w>
blon de</w>
ba ss</w>
anxi ous</w>
ac tress</w>
abi gail</w>
9 ,
z i</w>
xo á</w>
u. s</w>
tel s</w>
t ấp</w>
she ets</w>
s laughter</w>
re jected</w>
proper ties</w>
o on</w>
na tasha</w>
mo to</w>
m is</w>
kni ves</w>
it arian</w>
ha .</w>
fe ed
e ste
di êm</w>
cu ps</w>
co me.</w>
co ca</w>
can non</w>
c ă</w>
brea sts</w>
b ú</w>
au gu
y man</w>
vo ting</w>
tri u
the irs</w>
testi mony</w>
su bur
stro ngest</w>
ron ald</w>
power ed</w>
pisto l</w>
ou red</w>
ngu ội</w>
mur ray</w>
minu te.</w>
kryp ton</w>
jewel ry</w>
ger ry</w>
ga vin</w>
excel len
el e</w>
con s</w>
co mic</w>
ce me
car ly</w>
bu gs</w>
ban ana</w>
ab bing</w>
a tom</w>
3 000</w>
đã .</w>
đ ục</w>
trans late</w>
testi fy</w>
t ĩ
mechan ism</w>
kh ép</w>
jen kins</w>
in stan
il lin
guaran te
dia be
defen ding</w>
dan cer</w>
conta ined</w>
c un
ba i
b ands</w>
ẽ n</w>
v ate</w>
tur n
to yo
ta il
t ộ</w>
swe ep</w>
sub tle</w>
so phia</w>
sni per</w>
sha wn</w>
s.h.i.e.l. d</w>
s wan
ro s</w>
qu ỵ</w>
provi des</w>
produ cing</w>
po mpe
pl ing</w>
per cen
pengu in</w>
narra tive</w>
mont ana</w>
monit oring</w>
manufac turing</w>
lo way</w>
lin c</w>
la tio</w>
la sh</w>
insu lin</w>
ham mer
h uyện</w>
edu cated</w>
du r
data base</w>
c ồn</w>
bother ing</w>
b our</w>
apol lo</w>
ab road</w>
a b</w>
wan dering</w>
volunte ers</w>
traf fi
ti áº</w>
th ừng</w>
syndro me</w>
surpri ses</w>
stea m</w>
s burg</w>
run way</w>
ro gers</w>
pur sue</w>
pro ctor</w>
prin ce
offi ces</w>
ni ko
mi cky</w>
me g</w>
man dy</w>
m ợ</w>
lo is</w>
liqu or</w>
ka y
instin ct</w>
hel met</w>
grap hy</w>
g le
den ise</w>
d j</w>
curi osity</w>
cu ffs</w>
con ce
com mo
clos ure</w>
ch ói</w>
ch et</w>
cea sed</w>
activ ated</w>
a dol
â t</w>
xi ếc</w>
win chester</w>
vi sions</w>
v n</w>
ser van
rob inson</w>
re x</w>
poli sh</w>
per u</w>
nh e
mi tri</w>
k ane</w>
i ma
i cal</w>
hurri cane</w>
hotch ner</w>
ex pose</w>
con tra
comp el
cir cles</w>
ch ết.</w>
baske tball</w>
ba gh
b ers</w>
attrac ted</w>
788 7</w>
7 1</w>
23 3</w>
0 ,
x o</w>
vie wing</w>
ten sion</w>
suppor ting</w>
san ctu
s its</w>
per sons</w>
mi riam</w>
mccl ane</w>
lo cker</w>
ligh ting</w>
inter act</w>
hon e
ha mas</w>
fran ces
en th
crea tivity</w>
cr ack
char t</w>
ch or
cassi e</w>
c ough</w>
au to</w>
ar mies</w>
7 8</w>
zz i</w>
ug anda</w>
tun nels</w>
tr âu</w>
to pic</w>
ti ff
sun light</w>
st ly</w>
so le
s ấm</w>
s ác</w>
s ess</w>
ry u</w>
ru m</w>
rol ls</w>
ri char
regi ons</w>
quy ề</w>
pro mot
pro ble</w>
peop le.</w>
par ked</w>
on ese</w>
jo on</w>
họ .</w>
ham mad</w>
ha milton</w>
fla mes</w>
enterpri ses</w>
dru m</w>
dro wn</w>
ct .</w>
cong o</w>
cha o</w>
ch ưởng</w>
car pet</w>
c king
audi o</w>
antibio tics</w>
acqu ain
6 ,000</w>
- ừ</w>
đ ốn</w>
đ ế
witnes sed</w>
wheel er</w>
tu p</w>
too th
tho u</w>
scho o</w>
s ủa</w>
ro tten</w>
ph òn</w>
p ani
oper ative</w>
op ia</w>
m eri
l ượm</w>
kin son</w>
kh ánh</w>
ken dra</w>
k on</w>
hard ware</w>
gal l
g n</w>
exc it
dv d</w>
cru cial</w>
che es
c ẩm</w>
bo ong</w>
bjor n</w>
be ca
accompli shed</w>
a -</w>
ves sels</w>
tr in
thor ne</w>
thi c</w>
sui ci
se us</w>
savi ngs</w>
s mi
ri al</w>
rescu ed</w>
prof its</w>
per cen</w>
pas sionate</w>
nh ọn</w>
nee d
mit chell</w>
luck ily</w>
l ít</w>
k á</w>
honey moon</w>
hi ên</w>
her mi
for k</w>
fea ture</w>
e missions</w>
e gg
del hi</w>
cont acts</w>
cel lu
cal y
ca m
c unt</w>
br and
bar a
b bs</w>
1 80</w>
- thật</w>
x ê</w>
vladi mir</w>
v ét</w>
une mp
tr ãªn</w>
temper atures</w>
t ner</w>
spect acu
sp li
sh out</w>
r ạch</w>
pre cin
pra ise</w>
pa d
organi ze</w>
organ isms</w>
ona ire</w>
ni es</w>
k èo</w>
jessi e</w>
indus tries</w>
identi cal</w>
ho oked</w>
gran ts</w>
god frey</w>
fos sil</w>
feder ation</w>
er ase</w>
biop sy</w>
an ced</w>
am ster
ada ms</w>
ac comp
ươ u</w>
đ ụ</w>
yanke es</w>
up date</w>
to ll</w>
sun set</w>
st at
slu t</w>
s wan</w>
ren s</w>
re o</w>
poli cies</w>
pl a</w>
perfor ming</w>
o ngo
na ugh
mo le</w>
m à
ly la</w>
lu â</w>
l. a</w>
int act</w>
ig no
haz el</w>
grun ting</w>
finger prints</w>
fi xing</w>
fe ds</w>
du k</w>
d well</w>
cru z</w>
craw l</w>
cor a</w>
ch ro
c óng</w>
bran don</w>
bow ling</w>
batt le
app er</w>
whit ney</w>
u ý</w>
touri st</w>
tiff any</w>
thể .</w>
th ạo</w>
stro ngly</w>
scen ario</w>
op position</w>
ngh ä</w>
list s</w>
ki sh</w>
j ared</w>
in coming</w>
heath cliff</w>
fri es</w>
figu ring</w>
ex ception</w>
de clar
d as</w>
cop y
contr ary</w>
con sum
champion ship</w>
c r</w>
bren da</w>
ba ti
astron au
788 1</w>
z ers</w>
who res</w>
wea k
shi pping</w>
scen es</w>
respe cted</w>
pa irs</w>
opti mi
o a</w>
ng side</w>
na to</w>
memor ial</w>
la ter
la dder</w>
l ảng</w>
k ok</w>
je wel</w>
initi ative</w>
hã n</w>
h é</w>
got cha</w>
for getting</w>
ff ing</w>
e co
divi ded</w>
cr acked</w>
bing ley</w>
bea u</w>
ac o</w>
a er
200 ,000</w>
1 10</w>
ề .</w>
z u</w>
the ft</w>
swit ched</w>
suppor ted</w>
sum mit</w>
success fully</w>
so o
sh en</w>
sal ary</w>
s ấu</w>
re vi
re ception</w>
ra ins</w>
qu ẩn</w>
pregn ancy</w>
pil low</w>
philoso phy</w>
ongo ing</w>
nhu ộm</w>
min ent</w>
manu al</w>
m mm.</w>
kh ố</w>
inten tions</w>
influ en
hoff man</w>
ho g
hermi one</w>
hallelu jah</w>
h ans
gi àn</w>
es cal
envel ope</w>
distr acted</w>
dic ta
cul tures</w>
cro p</w>
constitu tion</w>
car ing</w>
ở n</w>
wor n</w>
wer ed</w>
va ugh
tho ạ</w>
tes sa</w>
terri fying</w>
tequ ila</w>
tai wan</w>
surr ounding</w>
stu pi
shre k</w>
se ok</w>
rema ined</w>
pot ato</w>
pla za</w>
pla sma</w>
ph ím</w>
mu tual</w>
mr .
mini onese</w>
merce des</w>
l ốc</w>
l loy
gu er
gree nh
for mation</w>
fa bul
enth usi
don o
deal t</w>
convi cted</w>
c å</w>
bo ards</w>
bl ind
ar in</w>
amoun ts</w>
u ph
tru n</w>
su p</w>
stri ngs</w>
ngh ếch</w>
isa bella</w>
gran ny</w>
di alo
bi ting</w>
200 2</w>
- why</w>
- -i</w>
you -</w>
you --</w>
wit ches</w>
venezu ela</w>
trou bles</w>
trop ical</w>
the ories</w>
th ứ
th ản</w>
th ly</w>
socie ties</w>
sma sh</w>
s light</w>
republi can</w>
over all</w>
op posed</w>
newsp apers</w>
n y.</w>
me tt</w>
me trop
li mo</w>
journ alists</w>
health care</w>
gl aci
e ger</w>
consu mer</w>
chu l</w>
aw fully</w>
ale c</w>
acciden tally</w>
8 1</w>
ờ m</w>
đ ành</w>
ye on</w>
wor ry.</w>
w o</w>
pur poses</w>
prince ton</w>
pre serve</w>
occu pied</w>
nee ding</w>
mô t</w>
mar ath
gla di
en chan
eli te</w>
dis crimin
di ng.</w>
der .</w>
deli cate</w>
d ốt</w>
clar a</w>
ch ốc</w>
bud dies</w>
bo li
barri er</w>
ar man
air line</w>
ề n.</w>
ý .</w>
wa ge</w>
vamp ires</w>
thu â</w>
techni ques</w>
sp ray</w>
regre ts</w>
re servation</w>
r att
pri ori
ph ồng</w>
mathema tics</w>
ma dri
lo o
le ban
k ền</w>
illin ois</w>
gu in
gi mme</w>
g ật</w>
g ator</w>
for mal</w>
f ounded</w>
de xter</w>
consist ent</w>
cha irs</w>
c re</w>
and ers</w>
24 9</w>
ũ y</w>
wh ales</w>
tr en
teenag er</w>
sure sh</w>
ste pping</w>
sp ra
sing h</w>
qu er
promis ing</w>
pro m</w>
pe ts</w>
partner ship</w>
near est</w>
min d
millen ni
invol ving</w>
inve sted</w>
inv ent</w>
hydro gen</w>
h ươu</w>
gi ble</w>
ga mb
f oul</w>
f ly
din er</w>
dam mit</w>
conne cting</w>
char i
bal d</w>
assu red</w>
à ng.</w>
vo y</w>
visit or</w>
to w
ten tion</w>
sho ve</w>
se t
run ner</w>
r our
p ine</w>
o c</w>
naz i</w>
mis sil
marti nez</w>
make up</w>
ma ste</w>
l end</w>
impro vement</w>
g ôn</w>
fra gile</w>
dis appoint</w>
cu tter</w>
colu mn</w>
caval ry</w>
ben ji</w>
ba sket</w>
at i</w>
ab bott</w>
1. 5</w>
ậ n.</w>
tr ưởn</w>
to wel</w>
thi ệ</w>
pitts burgh</w>
out si
oper ator</w>
mor nin</w>
mo men
massa ch
man ners</w>
ma inten
lu cil
lock down</w>
l út</w>
im mi
i cel
hun ted</w>
hel pless</w>
gu inea</w>
g age</w>
fer nando</w>
do e</w>
de tte</w>
criti ci
cri p
confir mation</w>
con temp
co le
ba chel
b ênh</w>
b c</w>
7 th</w>
3 61</w>
đ ẫm</w>
x ắn</w>
simp li
scu lly</w>
sa dly</w>
reti re</w>
ra sh</w>
ngo ạn</w>
n at</w>
my r
mar oni</w>
ma il
m út</w>
lo os
hel m</w>
g ence</w>
dyna mic</w>
dol ph</w>
compromi se</w>
comple x
casti el</w>
bu tcher</w>
bu ck
broad way</w>
archite ct</w>
te o</w>
tal ented</w>
ta h</w>
scorpi on</w>
s út</w>
reli eved</w>
qui ao</w>
por tal</w>
pac quiao</w>
nh ẽ</w>
nh ó</w>
ng ặt</w>
mon es</w>
miser y</w>
min nes
med it
ma che
luxu ry</w>
ligh ter</w>
la me</w>
ir ing</w>
inter ne</w>
intelle ctual</w>
house hold</w>
excit ement</w>
en vy</w>
don or</w>
dar hk</w>
curren cy</w>
consequ ence</w>
col in</w>
cla ude</w>
ch ắ</w>
cata stro
ben nett</w>
be hold</w>
au ton
alab ama</w>
activ ate</w>
acces sible</w>
đ m</w>
yanke e</w>
whisp ering</w>
vac u
targe ted</w>
stero ids</w>
sky net</w>
she pher
shar ks</w>
rus s</w>
roos ter</w>
ra ul</w>
ob stac
ng õ</w>
mu c</w>
mi ên</w>
mi ce</w>
me y</w>
l ụt</w>
inhu man</w>
i um</w>
heada che</w>
g cpd</w>
fun ctions</w>
expla ining</w>
exa min
dea d.</w>
che ng</w>
ch00 ffff</w>
boy le</w>
bo mber</w>
bet te</w>
au dition</w>
ar kham</w>
an gu
ad rian</w>
1 40</w>
đ ắng</w>
ven us</w>
un fair</w>
syl via</w>
sta bility</w>
re sort</w>
pan ama</w>
ori gin</w>
o g
nan ny</w>
men tation</w>
mel t</w>
me tres</w>
liter ature</w>
kne el</w>
histori cal</w>
g or</w>
evacu ation</w>
en coun
del ine</w>
courtes y</w>
ceme tery</w>
carri es</w>
car tel</w>
candi dates</w>
amster dam</w>
acqui red</w>
z hang</w>
wor ship</w>
tr â</w>
thu ố</w>
tap es</w>
roman ce</w>
re no
pois oning</w>
photograp her</w>
p pe</w>
ngư ờ
n s
mu mb
m n
lu cre
ki êng</w>
ho lo
ga tions</w>
g ắt</w>
flo ki</w>
favour ite</w>
execu te</w>
enz ie</w>
en ligh
ear t</w>
deli ghted</w>
cri sp
coun trie</w>
be tting</w>
alo ngside</w>
ac commo
- good</w>
wi shed</w>
trav els</w>
st acy</w>
re sur
re de
po lly</w>
nh à.</w>
mo du
missil es</w>
men ting</w>
m ắng</w>
los ses</w>
lea p</w>
l ens</w>
k au
k at</w>
hr er</w>
hi c
he l</w>
expres sed</w>
ex tent</w>
e tary</w>
coun ted</w>
comp ass</w>
ck er
cer sei</w>
bang kok</w>
awar eness</w>
ath ens</w>
aller gic</w>
alex and
- well</w>
yu an</w>
un lea
tu l
ti les</w>
sul li
shrin k</w>
scu m</w>
rus so</w>
ros es</w>
r ơ</w>
ph a
per ception</w>
or g</w>
nu mer
misunder standing</w>
lu ô</w>
lind sey</w>
li fted</w>
k áº</w>
increas es</w>
hand ful</w>
h ức</w>
g ót</w>
g he</w>
fortun ate</w>
drea d
dolph in</w>
do yle</w>
d ity</w>
cu ry</w>
ber ries</w>
algori thm</w>
tri a</w>
tr yin</w>
tor onto</w>
therap ist</w>
th æ</w>
statu e</w>
sele cted</w>
sa dness</w>
ris m</w>
resi dence</w>
r ụng</w>
pos ei
posei don</w>
o e</w>
nh ãi</w>
n òng</w>
mori arty</w>
lea h</w>
l anh</w>
k ol
fe ared</w>
f east</w>
explosi ve</w>
eri ca</w>
en dless</w>
distur bing</w>
disti ngu
d die</w>
che aper</w>
bo b
be ck</w>
b acked</w>
al do</w>
ag h</w>
ade qu
6 th</w>
ỏ n</w>
zu ko</w>
x éo</w>
wri st</w>
v ọt</w>
trans lated</w>
tr át</w>
tor pe
th uyên</w>
t ỵ</w>
sp an</w>
so cks</w>
s ắ</w>
rap id</w>
prototy pe</w>
p ated</w>
meaning ful</w>
mau rice</w>
mainten ance</w>
ma k
k re
insi sted</w>
imp or
i ves</w>
du rant</w>
comp re
cel l
borro wed</w>
bb ons</w>
b ani
at m</w>
arrange ments</w>
ab sur
a x</w>
790 9</w>
786 3</w>
ề u.</w>
zar re</w>
z al
x ẻ</w>
villa ges</w>
vaccin es</w>
ty rion</w>
trea ty</w>
tr ed</w>
ter rence</w>
sw at</w>
sul u</w>
sher ry</w>
roman s</w>
psychi c</w>
precin ct</w>
pi cks</w>
per fu
pas cal</w>
p neu
n ou
mul ti</w>
medi c</w>
mar sh
lo vers</w>
kh art</w>
k yo
jas per</w>
gal e</w>
exten ded</w>
e a</w>
d ô</w>
ch ấ</w>
c ước</w>
br ace</w>
affe cts</w>
adap t</w>
ac knowledge</w>
ẽ m</w>
wester os</w>
wer e
transi tion</w>
tr ina</w>
t ă</w>
swor d
swit zer
stri ct</w>
sco red</w>
respe ct
re z</w>
predi cted</w>
por k</w>
p and
messe nger</w>
men u</w>
m ọt</w>
l ăm</w>
ju ris
fi x
ff le</w>
di so
de bs</w>
cu red</w>
craw ford</w>
conta min
clear ance</w>
ch lor
bu ster</w>
ah hh</w>
a e</w>
5 .000</w>
3 50</w>
x a
w es</w>
vege tables</w>
understand .</w>
toge ther.</w>
tal es</w>
syn thetic</w>
servan ts</w>
procedu res</w>
pen ta
nh ịn</w>
ng ẫm</w>
naugh ty</w>
nar r
mil o</w>
mari anne</w>
lou isi
lin ed</w>
l æ</w>
gri p</w>
gre tchen</w>
fu gi
frien d.</w>
fri dge</w>
foo led</w>
fo o</w>
exam ine</w>
es i</w>
equi valent</w>
enti tled</w>
ed wards</w>
do d
ai res</w>
adren aline</w>
8 9</w>
x ẻo</w>
tr uy
th en.</w>
t ảo</w>
spi ke</w>
sco res</w>
rob b</w>
ra hl</w>
qu ẳng</w>
qu ô</w>
qu áng</w>
presen tation</w>
pi pes</w>
ologi sts</w>
nor m</w>
n ỉ</w>
m ity</w>
lloy d</w>
li mit
lever age</w>
kho át</w>
kh a
iso lation</w>
ha tred</w>
fini shing</w>
fer rar
et ts</w>
den ver</w>
da gger</w>
d ượng</w>
custo ms</w>
convin cing</w>
chi p
b ít</w>
ali bi</w>
19 60</w>
- đó</w>
wa x</w>
val e</w>
to m
sulli van</w>
shin y</w>
secu red</w>
scoo by</w>
sc andal</w>
ro ver</w>
reme mbers</w>
pai ge</w>
over seas</w>
olymp ics</w>
molecu lar</w>
mil ls</w>
m g</w>
la sting</w>
k un</w>
jos e
in dy</w>
hor ror</w>
ho ă</w>
har sh</w>
ha tch</w>
h ốt</w>
g at</w>
flo ors</w>
du ties</w>
distr act</w>
disp atch</w>
di ều</w>
desig ning</w>
d. c</w>
crus hed</w>
ch éo</w>
bati atus</w>
andre ws</w>
amb ush</w>
abdu cted</w>
3 rd</w>
2. 5</w>
x ỏ</w>
wheel chair</w>
us etts</w>
twi sted</w>
transfor mation</w>
tar gar
spar ta</w>
pi lots</w>
nh ă</w>
ng òi</w>
n ấy</w>
my th</w>
mes sy</w>
m ễ</w>
just -</w>
hone sty</w>
hol low</w>
evi den
emp loyment</w>
drow ned</w>
def ence</w>
decl ine</w>
cur ve</w>
cou ples</w>
corre ctly</w>
ch ướng</w>
c l</w>
c ance</w>
ah n</w>
5 th</w>
wh il
vag ina</w>
tw in
tter y</w>
to v</w>
tal s</w>
s wis
s ali
ri er</w>
re spir
pi ke</w>
pau la</w>
p ledge</w>
nick name</w>
nh ử</w>
nh ằn</w>
jud ges</w>
is ing</w>
in spire</w>
imp ress</w>
fabul ous</w>
f usion</w>
er o</w>
educa tional</w>
dra ft</w>
der son</w>
ch é</w>
bat teries</w>
ban ner</w>
at tract</w>
ali ties</w>
- đúng</w>
- they</w>
- let</w>
ổ i.</w>
z in</w>
what so
wea ver</w>
vir uses</w>
tri gg
tr ước.</w>
thri lled</w>
su cking</w>
str essed</w>
so .</w>
sli m</w>
shap es</w>
sha de</w>
s ài</w>
re fer</w>
mu ch.</w>
minnes ota</w>
li ve
kh áº</w>
k ị</w>
invol ves</w>
h òm</w>
gi ục</w>
g ne</w>
fla me</w>
fashi oned</w>
di c</w>
continu ing</w>
collap sed</w>
ce u
bud apest</w>
bo dy.</w>
b p</w>
angel o</w>
ang a</w>
al a
đi ề</w>
zi ggy</w>
win ston</w>
watch es</w>
uh -</w>
tr es
sp rings</w>
refu gee</w>
re se
qu ất</w>
qu ạt</w>
ph ươn</w>
pal e</w>
p u</w>
p r</w>
on ey</w>
nh ả</w>
n ana</w>
mo ira</w>
mer cury</w>
massach usetts</w>
mar yland</w>
lo b
li lly</w>
later al</w>
la wn</w>
ji ng
je an
infin ite</w>
import an</w>
hea ve</w>
gg led</w>
ga ining</w>
frea ked</w>
explor er</w>
ct u</w>
col lar</w>
cla iming</w>
chi ế</w>
ch ót</w>
bre w</w>
boo ze</w>
bi tion</w>
be ds</w>
au r
y ama
wel s</w>
vo ca
tr usting</w>
to mas</w>
th ed</w>
spectacu lar</w>
si vely</w>
ro ng</w>
refle ct</w>
qui cker</w>
per so</w>
per mit</w>
nh ất.</w>
ngư ợ
na val</w>
my sel</w>
mar ker</w>
l ard</w>
imp le
i à</w>
hall way</w>
hal ey</w>
green land</w>
ge sture</w>
g áy</w>
fla sh
expec tations</w>
evol ve</w>
el ope</w>
el ed</w>
deci des</w>
cr it
cor rupt</w>
co hen</w>
cel lo</w>
8 ,000</w>
199 9</w>
xi es</w>
x ịn</w>
tu cker</w>
tri stan</w>
tr ụi</w>
thi ền</w>
stri ctly</w>
st el
sei ze</w>
secre tly</w>
s che</w>
pro ves</w>
pe tty</w>
night mar
ni co</w>
nan o</w>
la den</w>
l ụa</w>
jo b.</w>
hou se.</w>
h ous</w>
gand hi</w>
g m</w>
f ers</w>
de mi
cros s
chú ng
c to</w>
c n</w>
blo cking</w>
bar ack</w>
bagh dad</w>
assassin ation</w>
apol is</w>
an tony</w>
ali cia</w>
wic kham</w>
v lad</w>
tu ra</w>
to p
th ms</w>
ter esa</w>
surviv or</w>
suit case</w>
smur fe
sick ness</w>
sen sors</w>
scar ing</w>
rol lo</w>
recomm en
r ìu</w>
o an</w>
narr ator</w>
mo ose</w>
men .</w>
m ant</w>
louisi ana</w>
la mp</w>
jud ging</w>
i v
ho ckey</w>
her r</w>
gal lery</w>
g áº</w>
g ra</w>
fr os
eter nity</w>
dra wer</w>
dinosau rs</w>
comm ents</w>
clo th</w>
certain ty</w>
c la</w>
atten ded</w>
ab str
ố .</w>
x ướng</w>
wel l
vul can</w>
ver n</w>
v able</w>
tri cky</w>
to wns</w>
to mb</w>
temp er</w>
tane ously</w>
switzer land</w>
shel ls</w>
scar let</w>
ru g</w>
reg gie</w>
re solve</w>
ra ining</w>
po we</w>
par ade</w>
p s
nel ly</w>
na th
m ậ</w>
i sts</w>
hel p.</w>
har i</w>
gui dance</w>
gi ờ.</w>
gar re
fo x
flo wing</w>
do ct
deal ers</w>
conveni ence</w>
co tt</w>
clu es</w>
cer y</w>
batt les</w>
asse mbly</w>
albu quer
ad orable</w>
4 th</w>
- đừng</w>
- all</w>
x áo</w>
twe et</w>
tro gen</w>
ta ker</w>
t ore</w>
sum mers</w>
sta che</w>
spea kers</w>
sna kes</w>
ses sions</w>
see ds</w>
ru by</w>
pot ato
ph àm</w>
measu red</w>
li t
in spir
in n</w>
i v</w>
ho dor</w>
enz y
en counter</w>
du sty</w>
do pe</w>
diplo matic</w>
daw son</w>
da e</w>
d -</w>
compla ining</w>
c nn</w>
boy d</w>
bi cycle</w>
be fore
b ìn</w>
adverti sing</w>
a zi
00 7</w>
00 .000</w>
vio lation</w>
tu ột</w>
tau b</w>
sup pos
sto c
spin ning</w>
ru m
replac ement</w>
reci pe</w>
rea ches</w>
re build</w>
physi cian</w>
ou ts</w>
or phan
op ing</w>
nai ve</w>
metaph or</w>
mar c</w>
logi sts</w>
lo pez</w>
li zzie</w>
li mb</w>
larg ely</w>
k n
juli et</w>
jo y
j en</w>
i ke</w>
hul k</w>
ho ods</w>
h ắn.</w>
go l</w>
fon d</w>
ferrar i</w>
fe es</w>
ea ger</w>
dri c</w>
consu mption</w>
condu cted</w>
cogni tive</w>
casu alties</w>
cal en
bur g
bu en
acci dents</w>
a untie</w>
a mber
6 9</w>
2 12</w>
19 th</w>
- và</w>
- phải</w>
- don</w>
- come</w>
wi res</w>
un stable</w>
u ke
teen age</w>
t anya</w>
sub stan
stewar t</w>
son ia</w>
six ty</w>
satelli tes</w>
s ought</w>
ri ses</w>
rela tion</w>
ra ys</w>
ra s</w>
ra il</w>
qu et</w>
profession als</w>
pharma ceu
ola f</w>
ob servation</w>
ni ce.</w>
nh ậu</w>
mon ia</w>
mo men</w>
mi ra</w>
marath on</w>
mache te</w>
laugh ed</w>
lan cel
la bel
kh ốc</w>
har mon</w>
gradu ated</w>
geor ges</w>
g ated</w>
edi ct</w>
dor is</w>
di ction</w>
cri sti
c ly</w>
auton o
aur ora</w>
attemp ting</w>
albuquer que</w>
accomp lish</w>
x ay</w>
v ắt</w>
ti k
st en
sp it
re na
ow ners</w>
o ak
no te
nh ọc</w>
li gh</w>
l n</w>
invest ors</w>
histori c</w>
eng aging</w>
disa bled</w>
di cky</w>
da un
b ane</w>
arri ves</w>
argen tina</w>
- this</w>
ê n
you ngest</w>
ven ture</w>
vani shed</w>
v as</w>
ten se</w>
t le
swis s</w>
spo on</w>
speci alist</w>
sh u</w>
ser um</w>
sel ina</w>
restri cted</w>
reali se</w>
produ cer</w>
o ms</w>
o a
no va</w>
ng ham</w>
neur os
me als</w>
m ài</w>
le ann</w>
lancel ot</w>
l uy
inde x</w>
in fil
g ments</w>
em mett</w>
des sert</w>
denti st</w>
connecti cut</w>
cl ari
ch ánh</w>
ce ments</w>
bi ếng</w>
ba s</w>
auto psy</w>
any thing.</w>
a il
ự n</w>
xu â</w>
wh er</w>
ver de</w>
v es.</w>
ur ge</w>
ti mer</w>
targe ting</w>
t ụy</w>
su lly</w>
star fleet</w>
st one
sho ots</w>
sa kes</w>
ru ling</w>
r hin
pos sessed</w>
po o</w>
per vert</w>
ni êm</w>
nh ạ</w>
ngh ê</w>
n áu</w>
mon trea
mi sts</w>
liber al</w>
li bby</w>
len a</w>
kin dly</w>
ju n</w>
inter action</w>
gi o
gar a</w>
econo mics</w>
ea sy.</w>
du bai</w>
dra zen</w>
dra in</w>
doro thy</w>
distur b</w>
d ạn</w>
colon y</w>
co mi
chan nels</w>
carri age</w>
c ci</w>
butt ons</w>
be ts</w>
bara theon</w>
arti cles</w>
an che</w>
af for
2 .000</w>
ườ ng.</w>
zz o</w>
ti mel
t ề</w>
su cked</w>
sof a</w>
shi elds</w>
sexu ally</w>
sele ction</w>
ow es</w>
od in</w>
mc queen</w>
m ẹo</w>
lo cals</w>
l ẽo</w>
l s
g ma</w>
for cing</w>
fir s</w>
f actu
el derly</w>
down load</w>
do l</w>
distr action</w>
de b</w>
d í</w>
cro ps</w>
cate gory</w>
ca mbo
brid ges</w>
br an</w>
bla ir</w>
asy lum</w>
approa ched</w>
đ ày</w>
ye men</w>
wh eat</w>
ve t
ti tles</w>
stuff ed</w>
spokes man</w>
si ties</w>
shi pment</w>
roman ia</w>
rea der</w>
re venue</w>
progra mmed</w>
pro mote</w>
po et</w>
pin kman</w>
ph ạ</w>
p each</w>
ori al</w>
ni ê</w>
neu ral</w>
ne tte</w>
mon ey.</w>
mi ze</w>
me a</w>
manu factu
k as
instin cts</w>
in tent</w>
in sight</w>
haun ted</w>
gat sby</w>
g ập</w>
fa mil</w>
f us</w>
e ma</w>
doo med</w>
de ceased</w>
da i
char ging</w>
ch ment</w>
brother hood</w>
a ch</w>
ề nh</w>
z or
z hou</w>
vaugh n</w>
the ore
t ong</w>
sugges tion</w>
squ ea
smurfe tte</w>
ske p
si mba</w>
se min
s ler</w>
r ạng</w>
pos sess</w>
pi ta</w>
pe ck</w>
p ru
ow l</w>
ori e</w>
occa sion
ng ủi</w>
ng âm</w>
ne at</w>
mor se</w>
medi ci</w>
ma ze</w>
life style</w>
le op
le one</w>
king doms</w>
i est</w>
hop eless</w>
h ậ</w>
gro ve</w>
gree ce</w>
fus co</w>
ex tract</w>
e an</w>
dar ius</w>
coun try
cool .</w>
colo red</w>
co ffin</w>
chron ic</w>
chi êm</w>
bu lly</w>
bra kes</w>
boun dar
bor gia</w>
be y</w>
bac on</w>
assa ul
ap es</w>
&apos; m</w>
đ út</w>
y .
wood en</w>
wa iter</w>
un lock</w>
transfor med</w>
tr ượng</w>
thor n
th y
swal lo
sur gi
sli ck</w>
scou ts</w>
represen ted</w>
regi ster</w>
refer ring</w>
re ments</w>
pro mp
pen elope</w>
mou ths</w>
me i
lu re</w>
lo go</w>
lea f</w>
le c
invol vement</w>
inter fer
instru ments</w>
gree dy</w>
f lor
din a</w>
der ness</w>
declar ation</w>
da d.</w>
d ùn</w>
cry p
chick ens</w>
car .</w>
b ent</w>
trou bled</w>
tr ă</w>
ta ka
ro w
resi li
pyra mid</w>
ngượ ng</w>
my croft</w>
mon u
ma e</w>
ma e
im migration</w>
fis cher</w>
fil ming</w>
fai thful</w>
f uss</w>
ex ce
domin ic</w>
di me</w>
d ệt</w>
d ots</w>
crow ded</w>
cous ins</w>
co ws</w>
chú ng.</w>
ch ậu</w>
an c</w>
a ha</w>
vir tually</w>
tribu te</w>
tempor arily</w>
tack le</w>
ta x
ta k</w>
stor ms</w>
spi es</w>
sor r</w>
s uy
pur chase</w>
pre fer
potato es</w>
mali a</w>
khuy nh</w>
inter ior</w>
i var</w>
han dy</w>
go ng</w>
gh ul</w>
gh ter</w>
ful fill</w>
for ming</w>
fa tal</w>
ev ans</w>
desper ately</w>
decl are</w>
craw ling</w>
cover age</w>
comb ine</w>
ci o</w>
bur ke</w>
bra ke</w>
bon us</w>
bel lick</w>
back yard</w>
a. m</w>
199 8</w>
whatso ever</w>
wer ing</w>
vi br
u i</w>
ti se</w>
teenag ers</w>
tas ks</w>
ster .</w>
sn ack</w>
smar t
ser vers</w>
scre wing</w>
roo m.</w>
righte ous</w>
r ha
progre s
or ches
ny ssa</w>
n ới</w>
mani ac</w>
m ó</w>
m á
leban on</w>
k nu
jen sen</w>
indi ana</w>
in mates</w>
in cen
igno red</w>
i cy</w>
hy dr
hop kins</w>
hel l
hanni bal</w>
h ủ</w>
fra med</w>
ett i</w>
eri an</w>
el lo</w>
dou gh
dono van</w>
custo m</w>
cre ator</w>
counsel or</w>
contain er</w>
con cep
c ủ
bun ker</w>
bro ok</w>
boun ty</w>
b rent</w>
appli cations</w>
andre i</w>
ambi tion</w>
- đi</w>
v òm</w>
tr ội</w>
tou ches</w>
sub si
sti cal</w>
spec trum</w>
satis faction</w>
s killed</w>
reu ters</w>
resu me</w>
re cep
r ụi</w>
publi cly</w>
ph é</w>
percen tage</w>
organ ism</w>
ome ga</w>
nh ấp</w>
montrea l</w>
min ded</w>
may day</w>
mar ty
mad ele
ma o</w>
m sy</w>
la bel</w>
ka th
ho i</w>
ha h</w>
h óc</w>
gra dy</w>
gor illa</w>
cor tex</w>
cor respon
chel sea</w>
at ti
ar ch</w>
ab sent</w>
zo oka</w>
wes ley</w>
wat ts</w>
wa kes</w>
vi cious</w>
t ắ</w>
sub stance</w>
spo il</w>
splen did</w>
r ữa</w>
portu gu
portugu ese</w>
p ai</w>
nes ses</w>
mal i</w>
magi cian</w>
ma trix</w>
lou der</w>
la in</w>
k on
har dy</w>
ge ons</w>
func tional</w>
fe i</w>
doub ts</w>
da tions</w>
compla int</w>
avoi ding</w>
attemp ts</w>
accu mu
a xe</w>
é e</w>
wor ms</w>
villa in</w>
vi bra
ukra ine</w>
u res</w>
sun rise</w>
sto ck
st am
sp a</w>
sei z
scot tish</w>
s to</w>
s qui
refle ction</w>
re pay</w>
re actor</w>
que z</w>
qu ẹo</w>
pul ls</w>
plac e.</w>
penta gon</w>
pat ent</w>
pan ties</w>
our ing</w>
offen sive</w>
nico las</w>
mari juana</w>
m ặn</w>
loa ds</w>
l ậ</w>
l óc</w>
k ap
i ii</w>
gi r</w>
fo ods</w>
fo g</w>
emer ging</w>
don e.</w>
dev oted</w>
des h</w>
cos ette</w>
chap el</w>
ca b
bo a</w>
ave nge</w>
4 50</w>
zi mb
y es
xi ang</w>
u ô</w>
t ari
ste er</w>
sp ite</w>
sett lement</w>
seiz ure</w>
s ó</w>
ro th
prin ted</w>
pr ou
ph os
oper ational</w>
ng ừ</w>
naka mura</w>
k les</w>
j f
inter views</w>
hin der</w>
for bid</w>
fl ush</w>
explo ded</w>
en able</w>
en ab
dra gging</w>
desi res</w>
cor n
contribu te</w>
compli ment</w>
co ins</w>
chu â</w>
ch al
bi g
auto matically</w>
- but</w>
ủ n</w>
ầ u.</w>
đ ứ</w>
é s</w>
y ê
weal thy</w>
war ts</w>
usi ons</w>
tou rism</w>
tea m
symp tom</w>
super hero</w>
star ve</w>
signifi can
shepher d</w>
see ker</w>
sa ig
re fri
re form</w>
ran som</w>
proces ses</w>
ph ớt</w>
ou tr
o án</w>
na y.</w>
n st</w>
micro bes</w>
mer cen
manufac tur
mani f
madri d</w>
li ng
les bian</w>
kel ey</w>
ju ven
ja ma
godd ess</w>
gi ous</w>
fun ded</w>
frea ks</w>
fo cusing</w>
fi sher</w>
ex ag
equ ation</w>
el a
dre s
discus sing</w>
co t
c te</w>
be gged</w>
be ep</w>
ban ned</w>
b bi
atten ding</w>
al dous</w>
al ber
8 0s</w>
z ones</w>
x ao</w>
to day.</w>
sti r
sta tic</w>
sp rin
sle eps</w>
sle ep
si mul
scar s</w>
sanctu ary</w>
refri ger
radi o
ra tions</w>
r à</w>
qu ad
pro hi
pred ator</w>
p reacher</w>
nu m</w>
mu ir
medi cin
ler .</w>
jon ny</w>
ho liness</w>
ho e</w>
he is
gi ú</w>
ga za</w>
g hi
extrac tion</w>
exag ger
difficul ty</w>
di ck
deri ck</w>
chuy ể</w>
che w</w>
ch ev
bl in</w>
al mighty</w>
a bun
5 0s</w>
1 e
- nhưng</w>
đu n</w>
đ ùng</w>
y ar
xu a</w>
v sky</w>
tu cky</w>
ti mo
techno logical</w>
su dan</w>
sti ff</w>
sacrifi ced</w>
resi dent</w>
reque sts</w>
remember ing</w>
r ương</w>
practi ces</w>
politi cian</w>
po well</w>
pa use</w>
no min
mo v</w>
ma ce</w>
lun atic</w>
lo tus</w>
l ũy</w>
juris diction</w>
it z</w>
instan tly</w>
ho mo</w>
her it
he ars</w>
greenh ouse</w>
gir l.</w>
genu ine</w>
excellen cy</w>
du m</w>
dialo gue</w>
deta iled</w>
deep est</w>
d ĩa</w>
cru cho
crucho t</w>
cour tney</w>
ch ạ</w>
bur ton</w>
bu z
auto matic</w>
an die</w>
absur d</w>
ab c</w>
ab a</w>
789 5</w>
20 30</w>
19 70</w>
year s.</w>
wis con
un ite</w>
un clear</w>
u da</w>
tu ầ</w>
to bac
tacti cal</w>
sp ared</w>
sail or</w>
ris king</w>
re mot
radi us</w>
provin ces</w>
p as</w>
n ab
moz art</w>
mo bili
matthe ws</w>
mar go</w>
madele ine</w>
lo ki</w>
li king</w>
l ằn</w>
l one</w>
kyo to</w>
is ta</w>
is le</w>
integr ity</w>
grand son</w>
eigh th</w>
drow ning</w>
do om</w>
di ving</w>
desti ned</w>
d ha</w>
conserva tive</w>
charac ter
ca t
ben ch</w>
ang us</w>
an ca</w>
a va</w>
10 0
trea tments</w>
su f
ske eter</w>
sa w
regi onal</w>
r ãnh</w>
r wanda</w>
pa th
os wald</w>
na mi</w>
men to</w>
m ẹ
m ously</w>
li p
le mon</w>
lan der</w>
interven tion</w>
i co</w>
i 1</w>
ho tels</w>
he in
he els</w>
h ound</w>
gla des</w>
fit ting</w>
fire works</w>
fil ing</w>
far ms</w>
fab ric</w>
emp athy</w>
dinosau r</w>
d is</w>
ct ory</w>
ca tio</w>
c tion
butter fly</w>
bour bon</w>
bat s</w>
19 9</w>
ủ .</w>
writ es</w>
w l</w>
ve ins</w>
v ớt</w>
v ũng</w>
th ốt</w>
tar zan</w>
t wee
str aw
sta mper</w>
shit ting</w>
shi rts</w>
se mi</w>
saig on</w>
s for
r ạn</w>
prophe cy</w>
progra mming</w>
ph ẩ</w>
op ini
nh agen</w>
naz ca</w>
mis m</w>
min t</w>
min dy</w>
me ghan</w>
m ap
li e
kid neys</w>
k r
hair cut</w>
gro dd</w>
gri ffin</w>
gener ated</w>
g ân</w>
flo at</w>
fli r
feed back</w>
f ter</w>
dwar f</w>
dire cted</w>
de eds</w>
complex ity</w>
camp s</w>
cal la
bar be
any ways</w>
ambi tious</w>
õ a</w>
zimb ab
y as
v ain</w>
ty rell</w>
swe den</w>
succe eded</w>
su ôn</w>
su v</w>
scy lla</w>
sa iling</w>
qu ỉ</w>
psy ch</w>
pre tti
par ks</w>
par i</w>
mi sh</w>
mi dd
mel a</w>
main land</w>
ja w</w>
interro gation</w>
inter n
human itarian</w>
ha grid</w>
gala xies</w>
g b</w>
fav ors</w>
f ty</w>
e ments</w>
du ll</w>
dra go</w>
clos es</w>
business man</w>
bu rial</w>
boundar ies</w>
be for</w>
ac c
4 0,000</w>
1 60</w>
ỏ .</w>
đ án</w>
í ch.</w>
à i.</w>
zi p</w>
x ước</w>
x â</w>
wire less</w>
villa gers</w>
ve z</w>
tr ans</w>
targar yen</w>
sp ac</w>
sm ok
rour ke</w>
retri eve</w>
respir atory</w>
respe cts</w>
psychop ath</w>
prin ting</w>
pean ut</w>
murder ers</w>
molecu le</w>
ma deline</w>
lock wood</w>
lau rie</w>
in timate</w>
ice man</w>
hor mone</w>
fu tur</w>
f ere</w>
di mitri</w>
concentr ation</w>
carri er</w>
bla med</w>
bar k</w>
ar r
ado pt</w>
accoun ting</w>
acade mic</w>
3 0s</w>
ươ ng.</w>
ti b
t ưng</w>
ste p
sco ffs</w>
sa d
ro dney</w>
richar ds</w>
ri son
ret to</w>
restaur ants</w>
respon ded</w>
recru it</w>
re a</w>
rac es</w>
pra yed</w>
peter son</w>
pe .</w>
pa ths</w>
p ine
o wed</w>
ngh ĩ
mali ck</w>
mai den</w>
m uố
kh ale
jo yce</w>
jf k</w>
ir relevant</w>
indi stin
hu ll</w>
ha cking</w>
for bes</w>
fi r</w>
fa me</w>
dis charged</w>
conqu er</w>
ch ard</w>
ch ant</w>
cate g
cap ua</w>
bub bles</w>
beca us</w>
z y
vo w</w>
vacu um</w>
t ít</w>
spe ars</w>
sma shed</w>
shi pped</w>
rhy thm</w>
r ated</w>
qu ã</w>
pri mi
por ch</w>
o y
nightmar es</w>
nes to</w>
mi ka
m m
la sted</w>
ki ri
kel ler</w>
inter fere</w>
inte gra
impro vi
gen ous</w>
fu ng
ex clusive</w>
euro s</w>
er ased</w>
dimen sions</w>
desig ns</w>
d ãi</w>
d áº</w>
communi st</w>
carni val</w>
c ốp</w>
c ke</w>
bou ts</w>
blin k</w>
aw w</w>
199 7</w>
wild life</w>
try m</w>
tru e.</w>
to pper</w>
ta mp
sta dium</w>
sho cking</w>
s ly</w>
regi me</w>
raz or</w>
profes sion</w>
ph ò</w>
on ia</w>
mort gage</w>
mid st</w>
long est</w>
lo west</w>
li ttle
jo lly</w>
inse ct</w>
initi ally</w>
inf ant</w>
indu l
grena de</w>
gra des</w>
gi en</w>
gi ants</w>
g him</w>
fle e</w>
er nesto</w>
emo tionally</w>
ele gant</w>
du mp
den ted</w>
coo ler</w>
chu ckling</w>
can .</w>
bul lock</w>
bu zz
bi zarre</w>
bac teri
b ái</w>
3 60</w>
25 ,000</w>
- thank</w>
x ẩy</w>
war p</w>
to -</w>
super natural</w>
su itable</w>
spac es
sn at
sa ddle</w>
r ậm</w>
ques tioned</w>
proph et</w>
o ch</w>
nguy ê</w>
ne gle
n ặc</w>
n ash</w>
mc donald</w>
li fel
il lumin
ho oker</w>
har ri
ha ck
h ừm</w>
grand children</w>
fre ely</w>
exc uses</w>
elli ott</w>
egyp tian</w>
du des</w>
di es
de mor
cy ber</w>
co pper</w>
c ộ</w>
c end</w>
br is</w>
ber keley</w>
b ở</w>
b ét</w>
ap ing</w>
79 17</w>
z am
vi p</w>
ut c</w>
ti ng
tex t
symp a
sin cer
serva tions</w>
senten ced</w>
re ef</w>
rab bi</w>
q i
prescri ption</w>
police man</w>
pic nic</w>
ph à</w>
occasion ally</w>
ni sh</w>
ngh ẽn</w>
ne ts</w>
n ếp</w>
mag n
m éo</w>
los ers</w>
law suit</w>
l ử</w>
kli ngon</w>
k os
hel ga</w>
h ết.</w>
gala van</w>
f da</w>
disa bility</w>
den se</w>
de en</w>
d ằn</w>
cra shing</w>
contra st</w>
conf essed</w>
ci li
che ek</w>
ch ạp</w>
certifi cate</w>
book ed</w>
bachel or</w>
an e
an do</w>
al ar
ad mir
1 25</w>
your sel</w>
x an</w>
wro ng.</w>
usu f</w>
tr ừu</w>
t ì</w>
strate gic</w>
spar k</w>
sin i</w>
recomm ended</w>
re ques
r é</w>
quaranti ned</w>
psychia tri
pi one
o dd
nu n</w>
ng ửa</w>
mar vel
invi ting</w>
i vy</w>
hor ton</w>
h int</w>
gradu ation</w>
g room</w>
foun tain</w>
fal con</w>
extin ct</w>
du n</w>
dani els</w>
conf usion</w>
ch æ</w>
c ỏi</w>
brief ing</w>
bed ded</w>
ag an</w>
a ta</w>
a go.</w>
yu ki</w>
with dra
wit t</w>
wiscon sin</w>
ver ti
tu ô</w>
trans lation</w>
trac es</w>
tobac co</w>
ta sty</w>
ta bl</w>
super girl</w>
sub mit</w>
str at
ski es</w>
sho o</w>
resur re
nó i.</w>
nar co
move .</w>
mack enzie</w>
m ới.</w>
m mi
lu ggage</w>
lin ks</w>
lar k</w>
l ộc</w>
je di</w>
isha an</w>
idea .</w>
i pad</w>
ham burger</w>
garden s</w>
g len</w>
fi ji</w>
expen se</w>
ex ternal</w>
emplo yer</w>
el o
dia z</w>
da vi
cre di
co v</w>
clif ford</w>
ca f
ballo on</w>
bal let</w>
ast oni
as is</w>
arro gant</w>
appoin ted</w>
any how</w>
antar cti
al titude</w>
yo ng</w>
war m
uni forms</w>
u ỷ</w>
u b
surpri singly</w>
se tup</w>
scho lar
sa y
rit chie</w>
ran ks</w>
quali ties</w>
plea s</w>
persu ade</w>
p esti
o ven</w>
n un
mar row</w>
lin ing</w>
li v</w>
l p</w>
kid nap</w>
justi fy</w>
isla mic</w>
hy ah</w>
how dy</w>
fr actu
floo ding</w>
fer ry</w>
fa int</w>
experien c</w>
ev ing</w>
dear est</w>
corri dor</w>
cardi ac</w>
bu r</w>
bother ed</w>
blo w
be eping</w>
bang la
b ẩy</w>
an ge
ab ort</w>
zi er</w>
v arez</w>
tex ts</w>
ta ted</w>
st at</w>
spac e
sa hara</w>
re war
re c
ph ẫn</w>
out standing</w>
ot y
no wa
n úm</w>
my ers</w>
mu á</w>
ma veri
khu ấy</w>
k able</w>
ire ne</w>
inh ab
hy un</w>
hi lari
ham mond</w>
go on</w>
gi bbons</w>
garre tt</w>
gab by</w>
ga mble</w>
exten sion</w>
evolu tionary</w>
every thing.</w>
eri us</w>
e cho
diabe tes</w>
dete ctives</w>
desig ners</w>
cti vity</w>
cristi na</w>
consu me</w>
con tradi
compon ent</w>
chur chill</w>
ca the
c úc</w>
blo om</w>
ban da
back pack</w>
ba d.</w>
b ore</w>
arman do</w>
antarcti ca</w>
an ch
al ter</w>
ac knowled
ab er
20 50</w>
- get</w>
đo á</w>
x ổ</w>
war mer</w>
vi ệ
tr ỗi</w>
ti res</w>
thea tre</w>
t ưới</w>
swi ft</w>
ski pper</w>
significan tly</w>
señ or</w>
serge i</w>
sche me</w>
savi or</w>
ris ked</w>
ri ot</w>
qu ật</w>
pop ped</w>
po or
pa c</w>
p anh</w>
off ended</w>
nin th</w>
new ly</w>
neu tral</w>
n ể</w>
mathema tical</w>
mar ching</w>
m its</w>
h ăm</w>
great ly</w>
for ged</w>
flo ws</w>
fa ils</w>
en danger
du l
distur bed</w>
dimen sion</w>
di xon</w>
consum ers</w>
con servation</w>
comman ds</w>
cog burn</w>
c -</w>
brid get</w>
bo ob
be c</w>
battle field</w>
20 s</w>
- so</w>
whisp er</w>
war ran
un prece
tu ý</w>
timo thy</w>
stu d</w>
s ục</w>
reques ting</w>
reck less</w>
pro ces</w>
po in</w>
o la</w>
numer ous</w>
nig el</w>
ne ther
ne pal</w>
muir field</w>
mor gue</w>
ma tive</w>
lucre zia</w>
la y
la ger
ka trina</w>
k íp</w>
k al</w>
it y.</w>
inter viewed</w>
in tr
hor mones</w>
he h.</w>
gr ound
ful ler</w>
fri en</w>
fr an</w>
fo ggy</w>
flo wn</w>
fe eds</w>
expe dition</w>
e t.</w>
e ch</w>
dr ones</w>
cu ff</w>
cra b</w>
ch00 c
ch00c 1e
ch00c1e 5
ch00c1e5 ec</w>
ch áo</w>
celebr ity</w>
ce cile</w>
cand les</w>
cand le</w>
bri ggs</w>
body guard</w>
bar r</w>
bac king</w>
ath ena</w>
an alo
yi eld</w>
with draw</w>
wil l
vi king</w>
un to</w>
tro op</w>
trea d
tra vers</w>
tr uyê</w>
thi ến</w>
tal bot</w>
swea ter</w>
sub marine</w>
sp ear</w>
sel ls</w>
quar ter
proble m.</w>
presu me</w>
po lo</w>
ori an</w>
ngo ãn</w>
me ga
manipu late</w>
la ti
l ìa</w>
k el</w>
je mma</w>
hus h</w>
gal il
for um</w>
fier ce</w>
far ther</w>
de ed</w>
dar ren</w>
cru sa
conf using</w>
clean er</w>
campa ig
bra zi
boun ce</w>
bar cel
aspi rin</w>
an ten
8 th</w>
15 ,000</w>
z en
win stone</w>
wan der</w>
vis its</w>
v ò</w>
v ents</w>
tur tle</w>
tun a</w>
tr ọc</w>
tr ol
t em</w>
swea ting</w>
st ages</w>
ski rt</w>
schu l
s ò</w>
roo kie</w>
real istic</w>
re aper</w>
qu è</w>
pi geon</w>
pen i
mother fucking</w>
ju ng</w>
in ter</w>
imp rison
i ans</w>
hy p
herit age</w>
gang ster</w>
ex or
effici ency</w>
dre y</w>
do mini
cor ners</w>
colo m
ci sts</w>
ch ùa</w>
ch uốc</w>
buy s</w>
br un
bar bie</w>
bal con
afgh an</w>
af fir
acu te</w>
ñ a</w>
y usuf</w>
ven u
tr ăn</w>
tr am
th en
t ạt</w>
sti cky</w>
ru ins</w>
ro x
re ferred</w>
rail road</w>
r ăn</w>
r ory</w>
qui to</w>
pro be</w>
pe cu
pain ter</w>
ng ỗng</w>
mus li
mot ors</w>
mo hinder</w>
manag ing</w>
m --</w>
li za</w>
ky ung</w>
jer ome</w>
intu i
hero ic</w>
has san</w>
gu essed</w>
gi ềng</w>
gg a</w>
g man</w>
frequ ently</w>
fe elin</w>
ex pi
er nst</w>
el ine</w>
dwi ght</w>
deliver ing</w>
cur ry</w>
cop es</w>
consu med</w>
co ded</w>
ck land</w>
aspe ct</w>
ama zi
adequ ate</w>
6 0,000</w>
6 0
đ ọ</w>
z hao</w>
wal ler</w>
to u</w>
tho s</w>
the sis</w>
tel ler</w>
stra p</w>
slo wer</w>
shu tting</w>
s well</w>
re vel
pos ts</w>
pa stor</w>
p c</w>
ori en
ol in</w>
ok ja</w>
o cu
mumb ai</w>
man chester</w>
luci us</w>
l ust</w>
j ose</w>
instal led</w>
in put</w>
hi ring</w>
gu an
g ặm</w>
for ge</w>
fa the</w>
ethi opia</w>
es the
equi pped</w>
di stress</w>
di e.</w>
den tal</w>
den ny</w>
dela yed</w>
cre ep</w>
cr on
ci e</w>
ch s</w>
blon d</w>
bever ly</w>
bet tie</w>
bea con</w>
bar rac
bab a</w>
amen d
al ph
al on
al ma</w>
198 5</w>
ệ .</w>
y al</w>
xi a
x ơi</w>
x ú</w>
wai tress</w>
viol in</w>
un necessary</w>
ti v</w>
thing s.</w>
territ ories</w>
symp athy</w>
slaugh tered</w>
shu ttle</w>
sch war
satis fy</w>
s ụt</w>
qu is
pun ched</w>
pp s</w>
possi bl</w>
mot h</w>
lan do</w>
l eland</w>
ken tucky</w>
k us
inter face</w>
im pe
ham med</w>
h l
gro aning</w>
entrepre neur
endu re</w>
el abor
dispos al</w>
defen sive</w>
d ột</w>
cor on
comm and
cof fe
cil lin</w>
cellu lar</w>
c ày</w>
bri be</w>
boob s</w>
ben edict</w>
bea sts</w>
baby lon</w>
b ích</w>
ath el
an to
789 3</w>
10 0.000</w>
í .</w>
ye t.</w>
wu han</w>
wil l.</w>
vu ng</w>
ur anium</w>
ty win</w>
tur kish</w>
tu â</w>
triu mph</w>
tac o</w>
suffi cient</w>
so malia</w>
shri mp</w>
sha ft</w>
scri p
sch ra
ru ining</w>
ro pes</w>
rhe tt</w>
re ject</w>
rain bow</w>
ra tio</w>
pp et</w>
post p
par alle
paralle l</w>
overwhel ming</w>
ot e</w>
or dering</w>
musli ms</w>
mp an
mit su
mi ngly</w>
mali k</w>
m ăng</w>
ku tner</w>
ki cks</w>
k an</w>
jose phine</w>
jan ine</w>
immun ity</w>
hic cup</w>
heart beat</w>
han a</w>
funda mentally</w>
foreig ners</w>
ex pel
equ ality</w>
ea bouts</w>
e il
do dge</w>
decl an</w>
dan te</w>
cy clo
comp res
chil e</w>
chat ter</w>
bron x</w>
bos ses</w>
bl os
bi sh</w>
b ạt</w>
b ates</w>
assu mption</w>
associ ates</w>
am muni
ai i</w>
19 50</w>
z lo</w>
w and</w>
vo s</w>
ur ine</w>
trea ts</w>
tane ous</w>
tal ents</w>
stin ks</w>
secon dary</w>
ros en</w>
ro l</w>
ri der</w>
rebel lion</w>
re late</w>
psycho logy</w>
por sche</w>
par ole</w>
mon ty</w>
mes a</w>
men tor</w>
magaz ines</w>
lo t
lo cking</w>
li z
k ley</w>
k .
j ie</w>
j ab
in testi
i q</w>
hon ey.</w>
hon da</w>
hob bit</w>
hesit ate</w>
han cock</w>
guarante ed</w>
ga ines</w>
frances ca</w>
fra me
fl ank</w>
fi el
exper tise</w>
ever est</w>
equ als</w>
environ ments</w>
entrepre neu
en ough
do g
demonstr ation</w>
coun tless</w>
contr acts</w>
climb ed</w>
che kov</w>
cancel ed</w>
boo v</w>
ar .</w>
a tion.</w>
30 0,000</w>
- a</w>
x ấ</w>
wid ely</w>
wer ner</w>
unprece dented</w>
tu ế</w>
to retto</w>
t ful</w>
sp ine</w>
smel led</w>
sla very</w>
six teen</w>
s ands</w>
rac ist</w>
promot ed</w>
pro v
pi er</w>
ph ông</w>
perfu me</w>
pac ks</w>
pa dre</w>
p ins</w>
op en
mộ t
mea suring</w>
man eu
ma tty</w>
m é</w>
li nger</w>
ki sses</w>
inspir ing</w>
im men
identi fication</w>
ha chi</w>
h em</w>
gy psy</w>
g low</w>
fre ddie</w>
electron ics</w>
do x</w>
dish on
deplo yed</w>
demonstr ate</w>
cl are</w>
car la</w>
camp u
bur t</w>
blon die</w>
ar se</w>
18 th</w>
yo on</w>
vi al</w>
tri bbi
tre k</w>
trac ed</w>
tr acker</w>
than e</w>
star bucks</w>
spin al</w>
soci et</w>
rho des</w>
revolu tionary</w>
remin der</w>
re je
ra v
r ươ</w>
pu mp
produ ces</w>
pri mar
pred ators</w>
p per
ol ds</w>
o ph
mpan ze
moon ey</w>
mag nit
l ở</w>
kno ts</w>
inv esting</w>
inter cept</w>
inqui ry</w>
holi days</w>
gra il</w>
gr y
frus trated</w>
foo ling</w>
fe min
explor ation</w>
es sex</w>
deman ding</w>
de part
dan ts</w>
commun it</w>
che v</w>
ces sion</w>
bella my</w>
be ers</w>
ba sh</w>
asse mble</w>
arch y</w>
after life</w>
ac res</w>
abor tion</w>
1, 500</w>
war ner</w>
volunte ered</w>
tri ps</w>
to bias</w>
ther mal</w>
th ệ</w>
survi ving</w>
sum mon
spil led</w>
sl it</w>
sfor za</w>
sen sei</w>
sa bot
s ven</w>
ro w.</w>
ri dd
ra ven
r ợn</w>
r ố</w>
r àn</w>
pu er
portra it</w>
orph an</w>
nh õm</w>
n ọc</w>
mir rors</w>
meaning less</w>
me z</w>
mar don</w>
manu el</w>
ma stur
lon el
ligh tly</w>
lar ity</w>
innova tive</w>
in appropriate</w>
hel ene</w>
gro cery</w>
gre et</w>
gh ana</w>
func tioning</w>
fugi tive</w>
for given</w>
er als</w>
emp ress</w>
emer ge</w>
em bedded</w>
disappoin tment</w>
dis grace</w>
des pi
conven tional</w>
controver si
cob b</w>
co pe
calen dar</w>
c led</w>
bo ar</w>
b ằn</w>
as es</w>
amber le</w>
al varez</w>
al leged</w>
- do</w>
đ ù</w>
you ng
worl d.</w>
whis ky</w>
vel o
u. s.
tik tok</w>
tel es
smel ly</w>
rob bing</w>
ri bs</w>
re vol
on ne</w>
n anh</w>
moti vation</w>
mo o</w>
massa cre</w>
mar ta</w>
li êu</w>
kra mer</w>
j acked</w>
inti mi
impro ving</w>
hor ns</w>
h ứ</w>
guar ding</w>
gos sip</w>
gi un</w>
gen ts</w>
g ò</w>
g ard</w>
follo wers</w>
flexi ble</w>
explor ing</w>
dri ed</w>
din ing</w>
di m</w>
den ial</w>
de gra
dar n</w>
crea se</w>
cr ates</w>
constru ct</w>
bus es</w>
bur gers</w>
bi scu
beli ev</w>
authenti c</w>
au ction</w>
ara bic</w>
appreci ated</w>
analy ze</w>
al it</w>
a tia</w>
199 5</w>
ọ ng.</w>
zimbab we</w>
wrest ling</w>
wor kin</w>
wh ack</w>
wal kers</w>
vi per</w>
ver ei
val erie</w>
v ấp</w>
tr end</w>
t úm</w>
so verei
sh red
sen sor</w>
sal es
regar ds</w>
redu cing</w>
pen cil</w>
patri cia</w>
nor ton</w>
mes .</w>
mc car
ma .</w>
m ứt</w>
lucil le</w>
l n
khi êng</w>
jama ica</w>
intri gu
i f
ho áº</w>
helicop ters</w>
gr u</w>
gen i
fe males</w>
ever .</w>
dra matically</w>
di e
d ors</w>
chu te</w>
chen ko</w>
ch ừa</w>
car ver</w>
ca tches</w>
au tism</w>
at e.</w>
aspe cts</w>
appeti te</w>
al t</w>
ad just</w>
7 ,000</w>
won ders</w>
volcan o</w>
tro ll</w>
tri cked</w>
tr ey</w>
to x
te aring</w>
state ments</w>
sele ct</w>
ru dy</w>
restri ctions</w>
primi tive</w>
prepar ation</w>
popu lations</w>
phot o
par tly</w>
pan cakes</w>
nowa days</w>
no isy</w>
ngh ẹt</w>
negoti ating</w>
mur ph</w>
motor cycle</w>
mon o
mil y.</w>
mar ga
li ngu
li ng.</w>
l ạ
l us
khale esi</w>
jus tine</w>
ji had</w>
hos ts</w>
ho mos
gra sp</w>
gib son</w>
g love</w>
g ler</w>
fel lows</w>
experi mental</w>
e en</w>
e bay</w>
depen dent</w>
d ựn</w>
compani on</w>
cock roa
clear ing</w>
carto on</w>
cal e</w>
brigh ton</w>
bran ches</w>
bo ot
bl end</w>
behavi oral</w>
any more.</w>
andro id</w>
ammuni tion</w>
00 0
ế p.</w>
đi ểu</w>
đ ạm</w>
ð i</w>
travel ling</w>
t ơi</w>
t ters</w>
syn di
susta ined</w>
suspici on</w>
surgi cal</w>
san ts</w>
rub bish</w>
ri des</w>
ri ddle</w>
remot ely</w>
po ke</w>
pa v
ow ner
or acle</w>
o h
o ak</w>
nine ty</w>
negoti ations</w>
naz is</w>
moti vated</w>
maca u</w>
m ang
k not</w>
jar vis</w>
hon orable</w>
ho ok
har t</w>
ha des</w>
gun shot</w>
gh etti</w>
g ọ</w>
fran ny</w>
er nie</w>
er adi
ener g</w>
en cies</w>
ei ghty</w>
dit ch</w>
distin ct</w>
di ly</w>
dea th
d ner</w>
cu be</w>
cra z
cr acks</w>
chi mpanze
cac bon</w>
c et</w>
bu ckle</w>
ar ound.</w>
ap pre
an kle</w>
addi ct</w>
- tớ</w>
ya hoo</w>
virtu e</w>
ul rich</w>
u. n.</w>
star board</w>
stan ton</w>
spar tan</w>
shi fts</w>
scar es</w>
s ảng</w>
rus hing</w>
ri cher</w>
re set</w>
rab bits</w>
r ượt</w>
pro mo
port land</w>
paraly zed</w>
palesti nian</w>
pa wn</w>
p p</w>
p ong</w>
op ed</w>
ob served</w>
nor s</w>
mel ting</w>
mc cain</w>
man olo</w>
lager tha</w>
la yers</w>
ki ệ</w>
kh ét</w>
kh âm</w>
ke e
jen na</w>
hog warts</w>
gro ot</w>
green e</w>
gr ounded</w>
g ặ</w>
frighten ing</w>
foun der</w>
foot steps</w>
fil ter</w>
e z
di zzy</w>
corpor ations</w>
con front</w>
co x</w>
challe nged</w>
car i
bus ines</w>
bo ws</w>
bir ch</w>
bil li
beli efs</w>
be ow
apologi se</w>
an t.</w>
amate ur</w>
ali zing</w>
9 th</w>
50 .000</w>
198 4</w>
á i.</w>
wi e</w>
van a</w>
v ỉa</w>
un acceptable</w>
tsu nami</w>
tr ắn</w>
tou ch
tho i</w>
thi e</w>
steph anie</w>
sp erm</w>
sou ven
seven ty</w>
sett ling</w>
ra o</w>
r èm</w>
pand ora</w>
p ouring</w>
octa via</w>
nh ộn</w>
ng ả</w>
neur on</w>
muni ch</w>
mis es</w>
max well</w>
lis m</w>
l ửng</w>
jam med</w>
im mer
ho lt</w>
hin du</w>
hendri cks</w>
ful ness</w>
extin ction</w>
exhi bition</w>
distribu ted</w>
ch ênh</w>
ch á
bla ming</w>
b ươ</w>
ad or</w>
7 0s</w>
ú c.</w>
za c</w>
w ski</w>
vo ke</w>
under lying</w>
tribbi ani</w>
to á</w>
ti l</w>
t ìn</w>
t w</w>
sub stitu
so a
simp son</w>
shor ter</w>
se in</w>
s nor
ro ma</w>
re union</w>
nur sing</w>
nath aniel</w>
m ề</w>
m ạ
k ẽ</w>
just --</w>
ig or</w>
ib m</w>
her ald</w>
ha ts</w>
gal lon</w>
fi sher
expan ding</w>
ex otic</w>
dri ft</w>
domin ant</w>
d ậ</w>
cu p
controversi al</w>
commer ce</w>
co con
bi ff</w>
beow ulf</w>
bar on</w>
ba h
arti stic</w>
ap ples</w>
an or</w>
al together</w>
a ki
ộ i.</w>
x ấp</w>
wel fare</w>
wa h</w>
v õng</w>
tri an</w>
ton ic</w>
timel ine</w>
thre sho
tex ting</w>
tel lo</w>
st en</w>
sal vation</w>
resear cher</w>
red dington</w>
re sig
phili ppe</w>
pen sion</w>
pa o</w>
or c</w>
nor way</w>
n ãªn</w>
mer chan
mb le
mathe mati
l òn</w>
ken shin</w>
ja mal</w>
j iro</w>
inter esti
inno cence</w>
in fr
ignor ance</w>
huy ệt</w>
hospit ality</w>
homos ex
ho pper</w>
hi ggs</w>
he brew</w>
haw kins</w>
harm less</w>
ha bits</w>
g òn</w>
g ly
fab ri
f. b.
emer ged</w>
ed ly</w>
dyna mite</w>
deb ts</w>
de z
dami an</w>
d jan
cour ts</w>
chi l</w>
ch y
catal o
car ved</w>
c tional</w>
bre eding</w>
barcel ona</w>
bang ing</w>
au drey</w>
ar ya</w>
a un
- cám</w>
ừ ng.</w>
đ ể
y t</w>
xi ao</w>
white hall</w>
whisp ers</w>
wel ling</w>
vo ws</w>
ver tical</w>
u tah</w>
t ly.</w>
sti cally</w>
squir rel</w>
snea king</w>
slo wing</w>
si k</w>
seven teen</w>
sei zed</w>
por tion</w>
pe l</w>
oper ated</w>
no s</w>
nhi ên.</w>
ng ý
mo ngo
ma ting</w>
lor i</w>
len nie</w>
kur u</w>
kid do</w>
inspe ction</w>
indi cates</w>
icel and</w>
i pod</w>
hol der</w>
ho bby</w>
hilari ous</w>
he el</w>
h ose</w>
grand parents</w>
gra vit
gli mp
fle u
enough .</w>
disp at
disgu ise</w>
dark est</w>
compon ents</w>
competi tive</w>
comp an</w>
colli sion</w>
cli cks</w>
clar ence</w>
chu ô</w>
cho ke</w>
ch ỉ
ch ảo</w>
ce lia</w>
car a
campu chia</w>
camil le</w>
ca .</w>
bub ba</w>
bro the</w>
bil bo</w>
bel ts</w>
be i</w>
au rens</w>
al ly.</w>
2, 2
- ai</w>
ò an</w>
wo ma</w>
wher eabouts</w>
usi ve</w>
thr oug</w>
tho od</w>
t â
ste w</w>
spe ed
so m
smo o
se y
rit u
ri k</w>
prote cts</w>
pol lock</w>
photograp hy</w>
pas sports</w>
north west</w>
north east</w>
ng ẩ
mu hammad</w>
mos quito</w>
magnit ude</w>
lo ttery</w>
le tte</w>
l ín</w>
ko wal
k ì
i x</w>
hung ary</w>
heaven ly</w>
gladi ator</w>
g anh</w>
fre ed</w>
fla vor</w>
fa ther.</w>
enligh ten
ecosy stem</w>
e do</w>
du cks</w>
drea mt</w>
depar ture</w>
d ẫ</w>
cor p
com mod
chuy á</w>
ch òm</w>
bet sy</w>
bat ch</w>
angel ina</w>
a. r.
50 0,000</w>
- lt</w>
ổ n.</w>
đ ợ</w>
ð ó</w>
xu ồng</w>
wa ges</w>
v ệt</w>
tr ầy</w>
thor ough</w>
tacti cs</w>
st amp</w>
sp ying</w>
smal l
sib eria</w>
s ế</w>
ri gged</w>
resi stant</w>
r ùng</w>
prote sts</w>
prostitu te</w>
pri ests</w>
pp in</w>
phot os
pe dro</w>
pa ste</w>
p ly</w>
ol is</w>
o ma</w>
nhi ều.</w>
ng ay.</w>
na tives</w>
mo ck</w>
mis sy</w>
luci fer</w>
li ngton</w>
legen dary</w>
la te.</w>
jud ged</w>
j us</w>
ir rit
indi genous</w>
hy dro</w>
ho ng
heal ed</w>
h ời</w>
h í</w>
gu chi</w>
grou n</w>
gradu ally</w>
go ku</w>
gi g</w>
gar ner</w>
fu els</w>
for tress</w>
fi el</w>
cos mic</w>
condem ned</w>
con soli
compre hen
chứ n</w>
c àn</w>
brief case</w>
bob bi</w>
bi ế
bar ber</w>
algori thms</w>
accep ting</w>
199 6</w>
19 75</w>
- gì</w>
ụ .</w>
x ander</w>
venu es</w>
v ap
tu n</w>
toni ght.</w>
toler ate</w>
ti an
thi um</w>
thi er</w>
tan ner</w>
ta ting</w>
t íc</w>
st us</w>
sp ends</w>
separ ation</w>
pon d</w>
pneu monia</w>
pi pel
nh ung</w>
ngà i.</w>
na z</w>
my an
marvel ous</w>
ly ra</w>
la sts</w>
it ty</w>
incar cer
i z</w>
ho g</w>
heal y</w>
h ẻo</w>
gen eva</w>
g ăm</w>
flo ck</w>
eleph ants</w>
e k
du mmy</w>
dread ful</w>
domin us</w>
dies el</w>
d ừa</w>
d l</w>
constru cted</w>
condu cting</w>
carol yn</w>
cap su
candi ce</w>
ca ves</w>
beauti fully</w>
ba um</w>
b ộn</w>
as tro
am y
aggres sion</w>
ag nes</w>
ado ption</w>
ac es</w>
ab y
198 6</w>
- just</w>
đ ản</w>
wh it</w>
vi co
u. k.</w>
u tter
to pi
su ff
spa ghetti</w>
so line</w>
sa di
s áp</w>
robo tics</w>
rich est</w>
ren ly</w>
rea dy.</w>
re ign</w>
r ôi</w>
q ing</w>
publi sh</w>
per cep
mu i</w>
mete or
men tal
mar vel</w>
m son</w>
lis le</w>
l ứa</w>
ki d.</w>
ka h
jeopar dy</w>
je anne</w>
in fan
i zed</w>
i shed</w>
hu m</w>
ge stap
ga soline</w>
g rea
evalu ation</w>
en dea
elabor ate</w>
dot e</w>
des pair</w>
d mi
d all</w>
cti ous</w>
chú t.</w>
box er</w>
ba mbo
b ind</w>
au d
astronau t</w>
zom bies</w>
writ ers</w>
verti go</w>
univer sities</w>
tul sa</w>
tt es</w>
tr òng</w>
tr c</w>
tomor ro</w>
th ình</w>
tal ler</w>
t c</w>
số ng.</w>
stor y.</w>
stan bul</w>
shor ts</w>
sha do</w>
sh h.</w>
sen s</w>
sea son
se d.</w>
responsi bilities</w>
regu larly</w>
recogni se</w>
r ặng</w>
prote ins</w>
pro ving</w>
perman ently</w>
pay ments</w>
on t
off shore</w>
mo red</w>
ma ils</w>
lo anh</w>
lanni sters</w>
l ấ</w>
juli us</w>
j our</w>
ir onic</w>
introdu ction</w>
imag ining</w>
il yn</w>
h ót</w>
gr in
good win</w>
goo g
geograp hic</w>
gener ator</w>
encoura ged</w>
en dor
ele mentary</w>
el vis</w>
el ler</w>
e e
cut ler</w>
cur tain</w>
compe tent</w>
clu msy</w>
cla ir</w>
ck in</w>
brook s</w>
brazi lian</w>
bo ost</w>
alter ed</w>
acqui re</w>
- hi</w>
warm th</w>
ver ing</w>
under estimate</w>
un armed</w>
tuy ệt.</w>
tru st
to logy</w>
thor in</w>
th el
sy mme
swe dish</w>
sub sequ
stra w</w>
stin king</w>
ste al
sle epy</w>
sin king</w>
sea ted</w>
scu m
schra der</w>
s ún</w>
ri val</w>
re za</w>
re strain
re en</w>
ran do
qu ẩy</w>
puer to</w>
pro pag
phos ph
paki stan
p led
ou trage
ng á</w>
neuros ci
ner d</w>
na iled</w>
myan mar</w>
mirac les</w>
micha els</w>
men s</w>
mal ley</w>
mach in
m ạt</w>
lu ca</w>
lo ans</w>
ki a.</w>
kho v</w>
j oker</w>
is lam</w>
ir anian</w>
ine quality</w>
in fli
ignor ant</w>
hy bri
hi ps</w>
gon e.</w>
glob ally</w>
forensi c</w>
fi sh
fi ber</w>
far ming</w>
f c</w>
extr ater
e din
djan go</w>
deplo y</w>
cu m</w>
contribu tion</w>
con dom</w>
com anche</w>
co dy</w>
ci des</w>
ch ịch</w>
camp ing</w>
be in</w>
be a</w>
bar t</w>
bar nett</w>
ban king</w>
agri cultural</w>
a chil
ả .</w>
ya cht</w>
y ep.</w>
x ỉu</w>
week ly</w>
voy age</w>
vot ers</w>
vi er</w>
v ít</w>
un do</w>
u ng
tri ce</w>
to wers</w>
tan z
ta bly</w>
t man</w>
sur ge</w>
so bbing</w>
si ngu
se als</w>
sa ves</w>
s ô
s ri</w>
ren ted</w>
relea sing</w>
rela xed</w>
re stored</w>
rap h</w>
r er
quy ế</w>
qu ế</w>
qu ill</w>
od le</w>
ob ses
narco tics</w>
mo ld</w>
mo hammed</w>
me ster</w>
lan ter
juli o</w>
inter cep
ingredi ents</w>
il legally</w>
ha d
h ess</w>
good man</w>
gene tically</w>
four teen</w>
fo gg</w>
fag got</w>
enti o</w>
elimin ated</w>
e un
du nge
dra wings</w>
do me</w>
dis co</w>
deva stating</w>
co wards</w>
cin ema</w>
cheer leader</w>
cel lar</w>
c ki
brand t</w>
b íp</w>
arm strong</w>
appar ent</w>
apo caly
ang les</w>
am ne
actu all</w>
ab used</w>
- làm</w>
yo ns</w>
x ạo</w>
vol demor
v ượn</w>
trigg ered</w>
to os</w>
thro ws</w>
t ột</w>
symbo ls</w>
stan ts</w>
sp ring
sco pe</w>
sal ute</w>
sal am
s wo
s miles</w>
ri ght
ran dolph</w>
r ẩy</w>
psychiatri st</w>
pre p</w>
po land</w>
pis sing</w>
number ed</w>
ni xon</w>
ng ạ</w>
n ốc</w>
mo dest</w>
men dez</w>
mas cus</w>
m ốt</w>
m h
legisla tion</w>
l ữ</w>
kh ead</w>
keep ers</w>
interrup ting</w>
hal lie</w>
h h
gi gan
gh .</w>
gestap o</w>
g ơ</w>
fore head</w>
fin dings</w>
ethi cal</w>
dis respect</w>
de du
da ener
con sen
compani e</w>
cler k</w>
cha e
car lisle</w>
c ợt</w>
buy er</w>
bee tho
bangla desh</w>
ba ses</w>
affe ction</w>
accoun ted</w>
9 0s</w>
10 th</w>
- are</w>
z on
x ở</w>
wher e.</w>
wa ving</w>
voldemor t</w>
vio lated</w>
ve get
tr ụy</w>
titu s</w>
ti n.</w>
tar ily</w>
sti r</w>
st r</w>
smal lest</w>
sandwi ches</w>
sa ble</w>
s nee
rep ly</w>
re stor
r ack</w>
pi g
ph ỉ</w>
per petr
pa mela</w>
p si</w>
new s
n ile</w>
min d.</w>
me tric</w>
m ác</w>
la .</w>
l ẳng</w>
k is</w>
ju di
in mate</w>
impos si
imag ing</w>
im it
here by</w>
gre ed</w>
fr ing</w>
encoun tered</w>
dru ms</w>
do thra
difficul ties</w>
den sity</w>
del la</w>
daener ys</w>
da mascus</w>
d us</w>
cre di</w>
cou p</w>
ci lia</w>
champi ons</w>
cha u
cal i</w>
break through</w>
bo s</w>
barre ls</w>
au gie</w>
athel stan</w>
app s</w>
anch or</w>
a.r. g.
a aah</w>
ồ .</w>
x ó</w>
wr on</w>
toma to</w>
thr ust</w>
th ằn</w>
th úi</w>
ten ds</w>
ta g
swa p</w>
stori e</w>
sta kes</w>
sor cer
sit ter</w>
sci s
s phere</w>
recommen dation</w>
re solved</w>
po x</w>
phi c</w>
par ag
opti mus</w>
occur s</w>
need les</w>
mer le</w>
mel man</w>
mel ess</w>
li ver
la tors</w>
inje ction</w>
infe ctious</w>
in fo</w>
hill ary</w>
hai ry</w>
gre er</w>
gla s
fleu ry</w>
exp li
every thin</w>
eri ngs</w>
environ men</w>
encoura ging</w>
embarra ss</w>
ele anor</w>
edu cate</w>
dou che</w>
diver se</w>
dis k</w>
der by</w>
den mark</w>
d wayne</w>
cư ờ</w>
cu b
cri pt</w>
con lon</w>
collabor ation</w>
cl ary</w>
chip mun
by r
bambo o</w>
b n</w>
avi ation</w>
an ton
acceler ator</w>
- này</w>
ẻ ng</w>
ấ t
yê u.</w>
ve il</w>
v ằn</w>
tw o.</w>
traffi cking</w>
tr aded</w>
tea ches</w>
ta tio</w>
stri pper</w>
smar test</w>
saf est</w>
s â</w>
rus hed</w>
ri us</w>
reu ben</w>
re g</w>
pro position</w>
pharmaceu tical</w>
pe ggy</w>
opini ons</w>
ont ario</w>
n ặn</w>
mos quit
mor ning.</w>
mon ks</w>
modi fied</w>
mel bourne</w>
mel anie</w>
le eds</w>
lau da</w>
ken drick</w>
ignor ing</w>
ho ạc</w>
habit at</w>
ha ha</w>
gun ther</w>
ge ome
fu zzy</w>
fe l</w>
expan sion</w>
ema ils</w>
econo mies</w>
ea ster</w>
din o</w>
de tention</w>
dd ling</w>
dav ina</w>
cy cles</w>
cos tello</w>
cor ner
con sult</w>
co war
co ve</w>
co di
christi ans</w>
cele ste</w>
car ib
calcu late</w>
budd hi
brief ly</w>
betra yal</w>
b ẽ</w>
b ần</w>
au tu
ami go</w>
adol es
addi ction</w>
abstr act</w>
đế n.</w>
ô ng
z ai</w>
tĩ n</w>
tra iler</w>
thor ough
te st
swa mp</w>
suspen sion</w>
super market</w>
sm oked</w>
sie ge</w>
shi shi
se tsu
schi zo
sa turn</w>
rou tes</w>
ren dez
re d.</w>
ra mbo</w>
ra ina</w>
ques tion
ques tio</w>
pursu ing</w>
poin tless</w>
pecu liar</w>
pe er</w>
out put</w>
ot to</w>
o oh.</w>
new man</w>
me thane</w>
m bi
lã ª
lu n</w>
la ys</w>
ke tch
jes sup</w>
j ag
infor mant</w>
imp acts</w>
h ằn</w>
h ướn</w>
gu ez</w>
gra ve
gr os
fi l</w>
f ou
epi c</w>
en t.</w>
el ders</w>
di stan
di cks</w>
d us
cu b</w>
cont ents</w>
civili zed</w>
chi áº</w>
bed time</w>
balcon y</w>
b red</w>
approa ches</w>
- đây</w>
- not</w>
ð ý
zu ka</w>
wr ath</w>
vico din</w>
tro phy</w>
trin ity</w>
transpar ency</w>
ti gers</w>
ta sted</w>
t ẹo</w>
swallo wed</w>
summon ed</w>
sum mon</w>
so ok</w>
sho ok</w>
shi r
republi cans</w>
re agan</w>
r ư
qu a.</w>
protoco ls</w>
phe us</w>
partici pants</w>
p anda</w>
owner ship</w>
ol i</w>
ob session</w>
như n</w>
ne ander
mu lan</w>
mon ter
mon a
mo m.</w>
mira kuru</w>
micros cope</w>
mi x
maveri ck</w>
mar se
k én</w>
k è</w>
ja vi</w>
inher ited</w>
i. d.</w>
hol lis</w>
gui ded</w>
grey joy</w>
go i</w>
gi lli
gas ping</w>
fl ou
fi cations</w>
et to</w>
edu ardo</w>
d ố</w>
d ầ</w>
cour ses</w>
colom bian</w>
burea u
bei rut</w>
beetho ven</w>
bad ass</w>
b ói</w>
b ard</w>
awa its</w>
auth or
al one.</w>
ab ad
1 .</w>
ãª u</w>
wil derness</w>
us hed</w>
tur bo</w>
transpor ted</w>
tor na
th ùy</w>
suz anne</w>
su gar
stal in</w>
shishi o</w>
sh hh</w>
representa tives</w>
redu ction</w>
re consider</w>
por ted</w>
pol ls</w>
pil ar</w>
pi x
pan ting</w>
our selve</w>
op y</w>
ng áy</w>
nes sy</w>
mo mma</w>
me g
l ạn</w>
il .</w>
i stanbul</w>
họ c.</w>
happ e</w>
gro o
glu e</w>
gh test</w>
ga ius</w>
fa ti
el et</w>
el bow</w>
don ation</w>
do pa
di stor
de bris</w>
d ép</w>
cri es</w>
cre we</w>
cope nhagen</w>
conver t</w>
con or</w>
come dy</w>
coa stal</w>
ch ộp</w>
ch è</w>
cap ita</w>
bi ta</w>
argu ments</w>
ad mit
achil les</w>
achiev ement</w>
ì nh
wa tt</w>
ur s</w>
tu bes</w>
trea cher
trau matic</w>
to on</w>
the ta</w>
tat toos</w>
t es.</w>
shel ly</w>
she er</w>
setsu ko</w>
sar ang</w>
sa tsu
rich ter</w>
ri ck
reinfor cements</w>
reg ina</w>
re tar
re tali
ra ting</w>
ra s
r ắm</w>
r ẫy</w>
r one</w>
r ane</w>
ph ao</w>
ori um</w>
oo o</w>
obje ction</w>
no ises</w>
ngẩ ng</w>
mu ti
mon thly</w>
mel ody</w>
mb les</w>
maxi mus</w>
lãª n</w>
lu pus</w>
li ving
li us</w>
la under
k iều</w>
inten sive</w>
i ma</w>
haw king</w>
guan tan
ga e</w>
g it</w>
fran z</w>
fol ded</w>
f bl</w>
escap ing</w>
edin burgh</w>
edi son</w>
ea g
dyna sty</w>
dy ke</w>
dr ought</w>
do cks</w>
disp er
disor ders</w>
di ans</w>
deser ted</w>
dead line</w>
d ìm</w>
convi ction</w>
co ali
chipmun ks</w>
chi ết</w>
can al</w>
c acy</w>
barrac ks</w>
ave ngers</w>
autu mn</w>
ass ess
ara bia</w>
an na
ama zed</w>
ad dressed</w>
a min
25 3</w>
ỳ nh</w>
ấ y
độ ng.</w>
ven om</w>
var gas</w>
va ting</w>
v os
tô i-</w>
tu mors</w>
toni gh</w>
titu des</w>
ti me
them selve</w>
t ying</w>
t apped</w>
sto cks</w>
sti ne</w>
st acks</w>
si ghts</w>
sha shi</w>
sea sons</w>
scholar ship</w>
reha b</w>
rang ers</w>
prosper ity</w>
prosecu tion</w>
po op</w>
per t</w>
obli ged</w>
nh ấm</w>
n 1</w>
mee chum</w>
mar v</w>
ma kin</w>
m è</w>
lonel iness</w>
li fting</w>
ko ta</w>
k lu
jenni ngs</w>
is s</w>
inter ference</w>
in stag
identi ties</w>
i ting</w>
hiể u.</w>
h ence</w>
grap hi
gra ff
fir st.</w>
fea thers</w>
exa mination</w>
esti mates</w>
ed ges</w>
dra ws</w>
di ễ</w>
de at</w>
d ấy</w>
d ấn</w>
con dol
colle en</w>
cin o</w>
chees e
cambo dia</w>
bra ss</w>
black mail</w>
ber na
ban ker</w>
air ways</w>
ad ers</w>
a gi
198 9</w>
ớ c</w>
ổ .</w>
ã º</w>
win ners</w>
và o.</w>
van cou
uố ng.</w>
utter ly</w>
tru sts</w>
tin ker</w>
thir st</w>
th ư
th óc</w>
ta ta</w>
swit ching</w>
stra uss</w>
spaces hip</w>
sle eve</w>
si rius</w>
roa st</w>
ri ca</w>
regi str
rea ders</w>
r r
proje c</w>
pi l</w>
nh út</w>
na me.</w>
mu le</w>
mu ff
man sion</w>
ma da</w>
lu cia</w>
la zar
l t
kenne th</w>
k ã</w>
jo o</w>
ir ony</w>
interrup ted</w>
impul se</w>
hu bert</w>
go b
gi ẻ</w>
gar rison</w>
g ance</w>
fr o</w>
fer gus
far a
f ing</w>
don nelly</w>
dis cover
deliber ately</w>
cre asy</w>
col our</w>
co d</w>
char ts</w>
bar b</w>
bad ger</w>
atlan tis</w>
ap plying</w>
and ro</w>
amend ment</w>
alexand ria</w>
ai med</w>
a head.</w>
15 th</w>
. com</w>
ọ p</w>
ẻ .</w>
yo ne.</w>
x ẻng</w>
trea su
tr áo</w>
tor ch</w>
thea d</w>
th ong</w>
ta c</w>
swee t
sus ie</w>
sur round</w>
super vi
strai ghten</w>
spi ders</w>
sever ely</w>
scis sors</w>
sai yan</w>
sa ur
s ả</w>
repea ted</w>
rene wa
r ust</w>
pon y</w>
pick up</w>
perfe ction</w>
per pe
pap i</w>
oun ced</w>
or o</w>
oak land</w>
n ố</w>
n ịnh</w>
mechani cs</w>
ma ts</w>
ma g</w>
m ị</w>
lor as</w>
li mbs</w>
le go</w>
k es
ji ang</w>
je ans</w>
in ary</w>
i ce.</w>
ho ắc</w>
h ên</w>
guantan amo</w>
gen s</w>
ga ard</w>
f oun</w>
exhi bit</w>
emili o</w>
e ks</w>
e -</w>
du m
don t</w>
do lly</w>
dis count</w>
de cepti
d ặ</w>
d ough</w>
d m
constan tine</w>
co op</w>
cla ws</w>
calla han</w>
ca mel</w>
ca dil
broad casting</w>
brea ker</w>
br at</w>
bl er</w>
bil l
bet ter.</w>
augu stus</w>
at las</w>
al ca
ai dan</w>
19 45</w>
ố i.</w>
x em.</w>
x avi
w .
vi de</w>
ver ne</w>
val id</w>
un ity</w>
tr aps</w>
tox ins</w>
to ả</w>
to mb
to ck</w>
thank ful</w>
th read</w>
sil ver
sel ess</w>
sci enc</w>
s crap</w>
ru ler</w>
rendez vous</w>
rehear sal</w>
recru ited</w>
re sign</w>
re moving</w>
plac ing</w>
ph ộng</w>
peni cillin</w>
pe ek</w>
nà i</w>
mi gr
mand ela</w>
mah one</w>
lớ n.</w>
l ợ</w>
ken ed</w>
k é</w>
je ts</w>
j il
inva de</w>
instru ction</w>
in ted</w>
hang ed</w>
graff iti</w>
gra d</w>
gla dly</w>
gene tics</w>
ge ek</w>
foot print</w>
ed en</w>
dor ne</w>
daw g</w>
d ịc</w>
cos mo</w>
cla p</w>
celebr ated</w>
car l
behavi ors</w>
be ware</w>
barre tt</w>
aa a</w>
a zer
a --</w>
6 0s</w>
198 8</w>
19 2,2
ố c.</w>
xu ấ</w>
xavi er</w>
wa g
w oul
v els</w>
u h.</w>
th ọc</w>
t ăn</w>
super visor</w>
sma ck</w>
si us</w>
she e</w>
sculp ture</w>
schizo ph
s ỏi</w>
ro bi</w>
recei pt</w>
reali zing</w>
primar ily</w>
pil grim</w>
pe o
pay roll</w>
parti al</w>
pa so</w>
o leg</w>
o ber
nh ót</w>
n ôi</w>
mur dering</w>
li f
legen ds</w>
l ả</w>
kh â</w>
ira qi</w>
hen derson</w>
gu an</w>
g na</w>
fore cast</w>
ffe l</w>
fergus on</w>
f art</w>
endanger ed</w>
elev ated</w>
disappe ars</w>
di se
dev o
dem anded</w>
de cker</w>
d è</w>
cru el
cri pple</w>
cri cket</w>
conne cts</w>
car do</w>
bri ga
bl ac
b á
ange li
alle gations</w>
ad ds</w>
abad don</w>
[...]
